{
  "version": "1.0",
  "truncation": null,
  "padding": null,
  "added_tokens": [
    {
      "id": 0,
      "content": "<|endoftext|>",
      "single_word": false,
      "lstrip": false,
      "rstrip": false,
      "normalized": false,
      "special": true
    },
    {
      "id": 1,
      "content": "<boi>",
      "single_word": false,
      "lstrip": false,
      "rstrip": false,
      "normalized": false,
      "special": true
    },
    {
      "id": 2,
      "content": "<eoi>",
      "single_word": false,
      "lstrip": false,
      "rstrip": false,
      "normalized": false,
      "special": true
    },
    {
      "id": 3,
      "content": "<image_soft>",
      "single_word": false,
      "lstrip": false,
      "rstrip": false,
      "normalized": false,
      "special": true
    },
    {
      "id": 4,
      "content": "<boa>",
      "single_word": false,
      "lstrip": false,
      "rstrip": false,
      "normalized": false,
      "special": true
    },
    {
      "id": 5,
      "content": "<eoa>",
      "single_word": false,
      "lstrip": false,
      "rstrip": false,
      "normalized": false,
      "special": true
    },
    {
      "id": 6,
      "content": "<audio_soft>",
      "single_word": false,
      "lstrip": false,
      "rstrip": false,
      "normalized": false,
      "special": true
    },
    {
      "id": 7,
      "content": "<video_soft>",
      "single_word": false,
      "lstrip": false,
      "rstrip": false,
      "normalized": false,
      "special": true
    }
  ],
  "normalizer": null,
  "pre_tokenizer": {
    "type": "ByteLevel",
    "add_prefix_space": false,
    "trim_offsets": true,
    "use_regex": true
  },
  "post_processor": null,
  "decoder": null,
  "model": {
    "type": "BPE",
    "dropout": null,
    "unk_token": null,
    "continuing_subword_prefix": null,
    "end_of_word_suffix": null,
    "fuse_unk": false,
    "byte_fallback": false,
    "ignore_merges": false,
    "vocab": {
      "<|endoftext|>": 0,
      "<boi>": 1,
      "<eoi>": 2,
      "<image_soft>": 3,
      "<boa>": 4,
      "<eoa>": 5,
      "<audio_soft>": 6,
      "<video_soft>": 7,
      "!": 8,
      "\"": 9,
      "#": 10,
      "$": 11,
      "%": 12,
      "&": 13,
      "'": 14,
      "(": 15,
      ")": 16,
      "*": 17,
      "+": 18,
      ",": 19,
      "-": 20,
      ".": 21,
      "/": 22,
      "0": 23,
      "1": 24,
      "2": 25,
      "3": 26,
      "4": 27,
      "5": 28,
      "6": 29,
      "7": 30,
      "8": 31,
      "9": 32,
      ":": 33,
      ";": 34,
      "<": 35,
      "=": 36,
      ">": 37,
      "?": 38,
      "@": 39,
      "A": 40,
      "B": 41,
      "C": 42,
      "D": 43,
      "E": 44,
      "F": 45,
      "G": 46,
      "H": 47,
      "I": 48,
      "J": 49,
      "K": 50,
      "L": 51,
      "M": 52,
      "N": 53,
      "O": 54,
      "P": 55,
      "Q": 56,
      "R": 57,
      "S": 58,
      "T": 59,
      "U": 60,
      "V": 61,
      "W": 62,
      "X": 63,
      "Y": 64,
      "Z": 65,
      "[": 66,
      "\\": 67,
      "]": 68,
      "^": 69,
      "_": 70,
      "`": 71,
      "a": 72,
      "b": 73,
      "c": 74,
      "d": 75,
      "e": 76,
      "f": 77,
      "g": 78,
      "h": 79,
      "i": 80,
      "j": 81,
      "k": 82,
      "l": 83,
      "m": 84,
      "n": 85,
      "o": 86,
      "p": 87,
      "q": 88,
      "r": 89,
      "s": 90,
      "t": 91,
      "u": 92,
      "v": 93,
      "w": 94,
      "x": 95,
      "y": 96,
      "z": 97,
      "{": 98,
      "|": 99,
      "}": 100,
      "~": 101,
      "¡": 102,
      "¢": 103,
      "£": 104,
      "¤": 105,
      "¥": 106,
      "¦": 107,
      "§": 108,
      "¨": 109,
      "©": 110,
      "ª": 111,
      "«": 112,
      "¬": 113,
      "®": 114,
      "¯": 115,
      "°": 116,
      "±": 117,
      "²": 118,
      "³": 119,
      "´": 120,
      "µ": 121,
      "¶": 122,
      "·": 123,
      "¸": 124,
      "¹": 125,
      "º": 126,
      "»": 127,
      "¼": 128,
      "½": 129,
      "¾": 130,
      "¿": 131,
      "Â": 132,
      "Ã": 133,
      "Ä": 134,
      "Å": 135,
      "Æ": 136,
      "Ç": 137,
      "È": 138,
      "É": 139,
      "Ê": 140,
      "Ë": 141,
      "Ì": 142,
      "Í": 143,
      "Î": 144,
      "Ï": 145,
      "Ð": 146,
      "Ñ": 147,
      "Ò": 148,
      "Ó": 149,
      "Ô": 150,
      "Õ": 151,
      "Ö": 152,
      "×": 153,
      "Ø": 154,
      "Ù": 155,
      "Ú": 156,
      "Û": 157,
      "Ü": 158,
      "Ý": 159,
      "Þ": 160,
      "à": 161,
      "á": 162,
      "â": 163,
      "ã": 164,
      "ä": 165,
      "å": 166,
      "æ": 167,
      "ç": 168,
      "è": 169,
      "é": 170,
      "ê": 171,
      "ë": 172,
      "ì": 173,
      "í": 174,
      "î": 175,
      "ï": 176,
      "ð": 177,
      "ā": 178,
      "Ă": 179,
      "ă": 180,
      "Ą": 181,
      "ą": 182,
      "Ć": 183,
      "ć": 184,
      "Ĉ": 185,
      "ĉ": 186,
      "Ċ": 187,
      "ċ": 188,
      "Č": 189,
      "č": 190,
      "Ď": 191,
      "ď": 192,
      "Đ": 193,
      "đ": 194,
      "Ē": 195,
      "ē": 196,
      "Ĕ": 197,
      "ĕ": 198,
      "Ė": 199,
      "ė": 200,
      "Ę": 201,
      "ę": 202,
      "Ě": 203,
      "ě": 204,
      "Ĝ": 205,
      "ĝ": 206,
      "Ğ": 207,
      "ğ": 208,
      "Ġ": 209,
      "ġ": 210,
      "Ģ": 211,
      "ģ": 212,
      "Ĥ": 213,
      "ĥ": 214,
      "Ħ": 215,
      "ħ": 216,
      "Ĩ": 217,
      "ĩ": 218,
      "Ī": 219,
      "ī": 220,
      "Ĭ": 221,
      "ĭ": 222,
      "Į": 223,
      "į": 224,
      "İ": 225,
      "ı": 226,
      "Ĳ": 227,
      "ĳ": 228,
      "Ĵ": 229,
      "ĵ": 230,
      "Ķ": 231,
      "ķ": 232,
      "ĸ": 233,
      "Ĺ": 234,
      "ĺ": 235,
      "Ļ": 236,
      "ļ": 237,
      "Ľ": 238,
      "ľ": 239,
      "Ŀ": 240,
      "ŀ": 241,
      "Ł": 242,
      "ł": 243,
      "Ń": 244,
      "ĠĠ": 245,
      "ĠĠĠĠ": 246,
      "Ġt": 247,
      "in": 248,
      "er": 249,
      "Ġa": 250,
      "on": 251,
      "he": 252,
      "re": 253,
      "at": 254,
      "en": 255,
      "or": 256,
      "st": 257,
      "ĠĠĠĠĠĠĠĠ": 258,
      "Ġthe": 259,
      "ĠĠĠ": 260,
      "Ġc": 261,
      "an": 262,
      "al": 263,
      "it": 264,
      "Ġs": 265,
      "le": 266,
      "Ġo": 267,
      "ar": 268,
      "is": 269,
      "Ġw": 270,
      "ed": 271,
      "es": 272,
      "ion": 273,
      "Ġf": 274,
      "Ġp": 275,
      "ing": 276,
      "ou": 277,
      "Ġb": 278,
      "ic": 279,
      "nd": 280,
      "Ġin": 281,
      "as": 282,
      "Ġof": 283,
      "Ġm": 284,
      "ro": 285,
      "Ġd": 286,
      "et": 287,
      "ct": 288,
      "ent": 289,
      "Ġto": 290,
      "Ġand": 291,
      "Ġh": 292,
      "ĠĠĠĠĠĠĠ": 293,
      "ĉĉ": 294,
      "el": 295,
      "Ġn": 296,
      "Ġre": 297,
      "am": 298,
      "Ġth": 299,
      "il": 300,
      "om": 301,
      "Ġ=": 302,
      "id": 303,
      "ce": 304,
      "ur": 305,
      "ut": 306,
      "Ġl": 307,
      "se": 308,
      "ol": 309,
      "im": 310,
      "Ġe": 311,
      "Ġ(": 312,
      "ad": 313,
      "</": 314,
      ");": 315,
      "ation": 316,
      "iv": 317,
      "th": 318,
      "ĠT": 319,
      "ĠS": 320,
      "ig": 321,
      "--": 322,
      "od": 323,
      "Ġ{": 324,
      "if": 325,
      "ch": 326,
      "=\"": 327,
      "ag": 328,
      "ĠC": 329,
      "ul": 330,
      "ot": 331,
      "ĠA": 332,
      "Ġ*": 333,
      "ĠĠĠĠĠĠĠĠĠĠĠĠĠĠĠĠ": 334,
      "Ġg": 335,
      "Ġis": 336,
      "un": 337,
      "ow": 338,
      "//": 339,
      "Ġ<": 340,
      "Ġst": 341,
      "ay": 342,
      "ĠI": 343,
      "pe": 344,
      "Ġv": 345,
      "us": 346,
      "ate": 347,
      "Ġbe": 348,
      "Ġfor": 349,
      "ly": 350,
      "ass": 351,
      "ers": 352,
      "Ġ1": 353,
      "em": 354,
      "tr": 355,
      "čĊ": 356,
      "ex": 357,
      "ac": 358,
      "ab": 359,
      "ir": 360,
      "âĢ": 361,
      "ist": 362,
      "Ġ\"": 363,
      "um": 364,
      "ue": 365,
      "oc": 366,
      "Ġon": 367,
      "ith": 368,
      "pt": 369,
      "**": 370,
      "ĠĠĠĠĠĠĠĠĠĠĠ": 371,
      "av": 372,
      "ht": 373,
      "Ġ}": 374,
      "ĠM": 375,
      "Ġcon": 376,
      "ter": 377,
      "ap": 378,
      "ĠP": 379,
      "Ġas": 380,
      "\">": 381,
      "our": 382,
      "ver": 383,
      "lass": 384,
      "Ġthat": 385,
      "ess": 386,
      "end": 387,
      "ame": 388,
      "ction": 389,
      "ĠB": 390,
      "and": 391,
      "op": 392,
      "res": 393,
      "ort": 394,
      "Ġy": 395,
      "Ġwh": 396,
      "00": 397,
      "ew": 398,
      "age": 399,
      "Ġwith": 400,
      "ain": 401,
      "ĠĠĠĠĠ": 402,
      "ri": 403,
      "Ġpro": 404,
      "Ġal": 405,
      "()": 406,
      "ef": 407,
      "Ġan": 408,
      "Ġit": 409,
      "Ġor": 410,
      "ub": 411,
      "ĠD": 412,
      "est": 413,
      "ĠH": 414,
      "urn": 415,
      "li": 416,
      "qu": 417,
      "ect": 418,
      "ĠR": 419,
      "ĠL": 420,
      "Ġ2": 421,
      "sp": 422,
      "Ġr": 423,
      "Ġ0": 424,
      "Ġex": 425,
      "ĠThe": 426,
      "Ġ'": 427,
      "ment": 428,
      "==": 429,
      "ĠF": 430,
      "ext": 431,
      "rom": 432,
      "ore": 433,
      "os": 434,
      "ke": 435,
      "Ġclass": 436,
      "ere": 437,
      "nt": 438,
      "ĠN": 439,
      "ĠE": 440,
      "----": 441,
      "ine": 442,
      "Ġwas": 443,
      "ĠW": 444,
      "Ġthis": 445,
      "Ġhe": 446,
      "turn": 447,
      "up": 448,
      "Ġcom": 449,
      "ĉĉĉĉ": 450,
      "ĠG": 451,
      "Ġare": 452,
      "ity": 453,
      "Ġby": 454,
      "able": 455,
      "con": 456,
      "ld": 457,
      "og": 458,
      "art": 459,
      "port": 460,
      "ile": 461,
      "Ġif": 462,
      "ight": 463,
      "get": 464,
      "ill": 465,
      "iz": 466,
      "Ġat": 467,
      "ack": 468,
      "ĠO": 469,
      "pl": 470,
      "ult": 471,
      "ype": 472,
      "all": 473,
      "ies": 474,
      "ive": 475,
      "..": 476,
      "ans": 477,
      "ant": 478,
      "ud": 479,
      "ĠĠĠĠĠĠĠĠĠĠĠĠĠĠĠ": 480,
      "Ġde": 481,
      "ode": 482,
      "Ġtr": 483,
      "Ġfrom": 484,
      "ert": 485,
      "Ġch": 486,
      "ure": 487,
      "Ġse": 488,
      "ial": 489,
      "Ġnot": 490,
      "ff": 491,
      "int": 492,
      "rou": 493,
      "ang": 494,
      "act": 495,
      "ast": 496,
      "ind": 497,
      "Ġ//": 498,
      "str": 499,
      "Ġle": 500,
      "->": 501,
      "ave": 502,
      "out": 503,
      "orm": 504,
      "lic": 505,
      "are": 506,
      "ata": 507,
      "ase": 508,
      "ord": 509,
      "text": 510,
      "ption": 511,
      "Ġreturn": 512,
      "ib": 513,
      "Ġ$": 514,
      "****": 515,
      "Ġsh": 516,
      "In": 517,
      "ost": 518,
      "of": 519,
      "\",": 520,
      "ject": 521,
      "ire": 522,
      "com": 523,
      "ip": 524,
      "Ġyou": 525,
      "Ġu": 526,
      "ĠU": 527,
      "::": 528,
      "ace": 529,
      "ard": 530,
      "cl": 531,
      "ĠJ": 532,
      "ther": 533,
      "ated": 534,
      "ath": 535,
      "Ġ@": 536,
      "ich": 537,
      "ov": 538,
      "Ġcan": 539,
      "to": 540,
      "Ġ-": 541,
      "ary": 542,
      "ould": 543,
      "âĢĻ": 544,
      "div": 545,
      "ource": 546,
      "../": 547,
      "ide": 548,
      "ust": 549,
      "ell": 550,
      "Ġ</": 551,
      "ong": 552,
      "unction": 553,
      "ak": 554,
      "alue": 555,
      "ref": 556,
      "ition": 557,
      "',": 558,
      "ign": 559,
      "ime": 560,
      "oo": 561,
      "cc": 562,
      "ild": 563,
      "),": 564,
      "Ġus": 565,
      "ss": 566,
      "per": 567,
      "ber": 568,
      "Ġhave": 569,
      "(\"": 570,
      "ice": 571,
      "lo": 572,
      "ublic": 573,
      ").": 574,
      "ple": 575,
      "td": 576,
      "Ġ19": 577,
      "ĠâĢ": 578,
      "ork": 579,
      "'s": 580,
      "Ġ[": 581,
      "Ġpl": 582,
      "ical": 583,
      "Ġwe": 584,
      "Con": 585,
      "Ġnew": 586,
      "Ġim": 587,
      "pro": 588,
      "elf": 589,
      "span": 590,
      "Ġk": 591,
      "Ġ+": 592,
      "dd": 593,
      "();": 594,
      "Ġ&": 595,
      "erv": 596,
      "Ġj": 597,
      "ance": 598,
      "The": 599,
      "ia": 600,
      "one": 601,
      "Ġar": 602,
      "ress": 603,
      "aram": 604,
      "ep": 605,
      "row": 606,
      "ĠIn": 607,
      "loc": 608,
      "Ġwhich": 609,
      "essage": 610,
      "Ġab": 611,
      "Ġ*/": 612,
      "ml": 613,
      "--------": 614,
      "ge": 615,
      "ec": 616,
      "ear": 617,
      "ĠTh": 618,
      "Ġhis": 619,
      "cri": 620,
      "Ġall": 621,
      "put": 622,
      "ence": 623,
      "hen": 624,
      "St": 625,
      "Ġ/": 626,
      "><": 627,
      "ory": 628,
      "ev": 629,
      "></": 630,
      "form": 631,
      "ens": 632,
      "ull": 633,
      "Ġres": 634,
      "ize": 635,
      "Ġun": 636,
      "ous": 637,
      "du": 638,
      "ents": 639,
      "ach": 640,
      "====": 641,
      "rit": 642,
      "ĠV": 643,
      "01": 644,
      "ĠĠĠĠĠĠĠĠĠĠĠĠĠĠĠĠĠĠĠ": 645,
      "ail": 646,
      "ĠK": 647,
      "te": 648,
      "set": 649,
      "Ġcont": 650,
      "que": 651,
      "Ġen": 652,
      "Ġstr": 653,
      "ations": 654,
      "Ġpr": 655,
      "ug": 656,
      "ĉĉĉ": 657,
      "err": 658,
      "ink": 659,
      "Ġdo": 660,
      "tring": 661,
      "Ex": 662,
      "Ġ.": 663,
      "so": 664,
      "Ġtheir": 665,
      "Ġ_": 666,
      "('": 667,
      "Ġhas": 668,
      "Ġap": 669,
      "Ġ:": 670,
      "ome": 671,
      "bject": 672,
      "ound": 673,
      "ount": 674,
      "Ġdis": 675,
      "ual": 676,
      "Ġbut": 677,
      "Ġwill": 678,
      "ll": 679,
      "aw": 680,
      "ery": 681,
      "ish": 682,
      "own": 683,
      "Ġhref": 684,
      "ĠĠĠĠĠĠĠĠĠ": 685,
      "Ġfunction": 686,
      "Ġ3": 687,
      "../../": 688,
      "ER": 689,
      "Ġthey": 690,
      "ĠSt": 691,
      "this": 692,
      "Ġ|": 693,
      "Ġwere": 694,
      "html": 695,
      "sh": 696,
      "gh": 697,
      "Ġpublic": 698,
      "eth": 699,
      "ake": 700,
      "Ġout": 701,
      "oid": 702,
      "ree": 703,
      "Ġup": 704,
      "Ġvar": 705,
      "IN": 706,
      "source": 707,
      "ater": 708,
      "))": 709,
      "ON": 710,
      "led": 711,
      "che": 712,
      "tp": 713,
      "les": 714,
      "nder": 715,
      "eg": 716,
      "Ġone": 717,
      "message": 718,
      "ck": 719,
      "Ġman": 720,
      "clud": 721,
      "Ġper": 722,
      "name": 723,
      "Ġgo": 724,
      "lect": 725,
      "##": 726,
      "ool": 727,
      "cre": 728,
      "pec": 729,
      "Ġdef": 730,
      "ĠCh": 731,
      "rr": 732,
      "Ġint": 733,
      "ors": 734,
      "Ġev": 735,
      "Ġmore": 736,
      "Ġhad": 737,
      "ces": 738,
      "trans": 739,
      "irst": 740,
      "Ġ#": 741,
      "Ġget": 742,
      "pr": 743,
      "Ġyour": 744,
      "ian": 745,
      "ook": 746,
      "eld": 747,
      "Ġ=>": 748,
      "Ġme": 749,
      "import": 750,
      "âĢĿ": 751,
      "ions": 752,
      "ings": 753,
      "Ġsu": 754,
      "ener": 755,
      "Ġcol": 756,
      "ĠĊ": 757,
      "ite": 758,
      "ry": 759,
      "Pro": 760,
      "we": 761,
      "inal": 762,
      "Ġwho": 763,
      "return": 764,
      "|>": 765,
      "endof": 766,
      "<|": 767,
      "endoftext": 768,
      "Ġcomp": 769,
      "low": 770,
      "Ġ!": 771,
      "********": 772,
      "yst": 773,
      "Name": 774,
      "tern": 775,
      "quest": 776,
      "fer": 777,
      "key": 778,
      "mer": 779,
      "ax": 780,
      "use": 781,
      "Ġalso": 782,
      "iew": 783,
      "ield": 784,
      "ob": 785,
      "ates": 786,
      "lation": 787,
      "ms": 788,
      "Ġso": 789,
      "col": 790,
      "param": 791,
      "ely": 792,
      "Ġpart": 793,
      "Ġname": 794,
      "ark": 795,
      "ne": 796,
      "Ġset": 797,
      "ng": 798,
      "ache": 799,
      "Type": 800,
      "Ġother": 801,
      "Ġi": 802,
      "gr": 803,
      "ont": 804,
      "Ġne": 805,
      "code": 806,
      "RE": 807,
      "def": 808,
      "ix": 809,
      "ystem": 810,
      "ĠIt": 811,
      "add": 812,
      "Ġpre": 813,
      "Ġits": 814,
      "Ġtype": 815,
      "ict": 816,
      "ph": 817,
      "Ġass": 818,
      "roup": 819,
      "ose": 820,
      "ĠY": 821,
      "Ġwhen": 822,
      "Ġ4": 823,
      "arg": 824,
      "alse": 825,
      "__": 826,
      "Ġwork": 827,
      "cript": 828,
      "old": 829,
      "atic": 830,
      "vel": 831,
      "fig": 832,
      "oint": 833,
      "eng": 834,
      "lement": 835,
      "Ġ==": 836,
      "pect": 837,
      "String": 838,
      "Ġro": 839,
      "ST": 840,
      "iss": 841,
      "co": 842,
      "Ġmay": 843,
      "translation": 844,
      "ĠĠĠĠĠĠĠĠĠĠĠĠĠĠĠĠĠĠĠĠĠĠĠĠĠĠĠĠĠĠĠĠ": 845,
      "Ġag": 846,
      "Ġel": 847,
      "Ġself": 848,
      "atch": 849,
      "Ġcomm": 850,
      "ange": 851,
      "Re": 852,
      "Ġdata": 853,
      "app": 854,
      "ays": 855,
      "Ġsp": 856,
      "Ġbeen": 857,
      "ense": 858,
      "Ġadd": 859,
      "Ġtime": 860,
      "Ġte": 861,
      "ific": 862,
      "round": 863,
      "lock": 864,
      "reat": 865,
      "Ġunder": 866,
      "ons": 867,
      "the": 868,
      "Ġover": 869,
      "19": 870,
      "px": 871,
      "Ġno": 872,
      "fter": 873,
      "igh": 874,
      "ser": 875,
      "ove": 876,
      "Ġuse": 877,
      "ft": 878,
      "://": 879,
      "ĠThis": 880,
      "arch": 881,
      "Ġend": 882,
      "Ġher": 883,
      "Ġad": 884,
      "ception": 885,
      "uild": 886,
      "urre": 887,
      "io": 888,
      "Ġdes": 889,
      "ĠUn": 890,
      "ick": 891,
      "Ġ5": 892,
      "qual": 893,
      "pert": 894,
      "ault": 895,
      "ator": 896,
      "Ġinto": 897,
      "Ġ>": 898,
      "uct": 899,
      "read": 900,
      "ĠâĢľ": 901,
      "Ġcl": 902,
      "pos": 903,
      "fo": 904,
      "pon": 905,
      "ys": 906,
      "class": 907,
      "ethod": 908,
      "Ġabout": 909,
      "vent": 910,
      "Th": 911,
      "ames": 912,
      "Ġid": 913,
      "ĠHe": 914,
      "wo": 915,
      "Ġ200": 916,
      "AT": 917,
      "Ġthem": 918,
      "Ġpe": 919,
      "));": 920,
      "Res": 921,
      "Ġli": 922,
      "Ġvalue": 923,
      "type": 924,
      "Com": 925,
      "EN": 926,
      "ock": 927,
      "List": 928,
      "ade": 929,
      "Ġsc": 930,
      "erm": 931,
      "Ġfirst": 932,
      "umber": 933,
      "ning": 934,
      "Ġany": 935,
      "AR": 936,
      "OR": 937,
      "Ġline": 938,
      "Ġkn": 939,
      "hed": 940,
      "nc": 941,
      "\");": 942,
      "ĠĠĠĠĠĠ": 943,
      "Ġ201": 944,
      "Ġthan": 945,
      "Id": 946,
      "cess": 947,
      "ise": 948,
      "odel": 949,
      "ra": 950,
      "Ġnull": 951,
      "Ġsup": 952,
      "ious": 953,
      "Ġyear": 954,
      "To": 955,
      "ople": 956,
      "ics": 957,
      "Ġwould": 958,
      "Ġ||": 959,
      "Ġinter": 960,
      "ody": 961,
      "IT": 962,
      "Ġspec": 963,
      "Ġthere": 964,
      "Ġonly": 965,
      "quire": 966,
      "ĠĠĠĠĠĠĠĠĠĠĠĠĠĠĠĠĠĠĠĠĠĠĠ": 967,
      "\"><": 968,
      "yp": 969,
      "Ġconst": 970,
      "Ġvoid": 971,
      "cont": 972,
      "ied": 973,
      "/>": 974,
      "Ch": 975,
      "nb": 976,
      "Ġsome": 977,
      "ccess": 978,
      "var": 979,
      "ute": 980,
      "ble": 981,
      "Ġtrue": 982,
      "----------------": 983,
      "val": 984,
      "Ġ`": 985,
      "itle": 986,
      "ĠĠĠĠĠĠĠĠĠĠĠĠĠ": 987,
      "Ġerr": 988,
      "Ġbo": 989,
      "rap": 990,
      "Ġact": 991,
      "////": 992,
      "ton": 993,
      "Ġstud": 994,
      "Ġreg": 995,
      "Ġorg": 996,
      "SE": 997,
      "Ġresult": 998,
      "\"/>": 999,
      "Ġelse": 1000,
      "red": 1001,
      "br": 1002,
      "nbsp": 1003,
      "ause": 1004,
      "http": 1005,
      "Ġpos": 1006,
      "Ġ&&": 1007,
      "ength": 1008,
      "Ġinclud": 1009,
      "ader": 1010,
      "Ġused": 1011,
      "Ġfalse": 1012,
      "but": 1013,
      "ument": 1014,
      "========": 1015,
      "Ġbet": 1016,
      "self": 1017,
      "ivate": 1018,
      "urrent": 1019,
      "ood": 1020,
      "):": 1021,
      "Ġtest": 1022,
      "olog": 1023,
      "ative": 1024,
      "ptions": 1025,
      "ve": 1026,
      "AL": 1027,
      "ervice": 1028,
      "uth": 1029,
      "line": 1030,
      "ational": 1031,
      "amp": 1032,
      "Ġsub": 1033,
      "Ġfile": 1034,
      "enc": 1035,
      "its": 1036,
      "data": 1037,
      "Ġrem": 1038,
      "ersion": 1039,
      "ible": 1040,
      "ren": 1041,
      "Ġoff": 1042,
      "ities": 1043,
      "ask": 1044,
      "Ġcons": 1045,
      "ular": 1046,
      "trib": 1047,
      "Ġ)": 1048,
      "],": 1049,
      "ĠâĢĵ": 1050,
      "Ġrel": 1051,
      "Ġind": 1052,
      "ym": 1053,
      "bo": 1054,
      "ner": 1055,
      "ample": 1056,
      "Ġhim": 1057,
      "ues": 1058,
      "Ġop": 1059,
      "yle": 1060,
      "Ġthese": 1061,
      "Ġinst": 1062,
      "Ġtwo": 1063,
      "LE": 1064,
      "back": 1065,
      "Ġshould": 1066,
      "cent": 1067,
      "ash": 1068,
      "js": 1069,
      "Ġsa": 1070,
      "idth": 1071,
      "Ġam": 1072,
      "Ġback": 1073,
      "Ġprov": 1074,
      "ee": 1075,
      "rough": 1076,
      "ĠPro": 1077,
      "ie": 1078,
      "ern": 1079,
      "ished": 1080,
      "ages": 1081,
      "ID": 1082,
      "Ġdif": 1083,
      "opy": 1084,
      "10": 1085,
      "ins": 1086,
      "right": 1087,
      "icense": 1088,
      "Ġem": 1089,
      "Ġpeople": 1090,
      "20": 1091,
      "Ġco": 1092,
      "org": 1093,
      "\"></": 1094,
      "Ġdr": 1095,
      "ited": 1096,
      "Ġhow": 1097,
      "ient": 1098,
      "ating": 1099,
      "Ġmost": 1100,
      "Err": 1101,
      "Ġshe": 1102,
      "Ġ!=": 1103,
      "Ġsuch": 1104,
      "Ġdist": 1105,
      "der": 1106,
      "Ġform": 1107,
      "\")": 1108,
      "ased": 1109,
      "._": 1110,
      "Value": 1111,
      "tem": 1112,
      "land": 1113,
      "und": 1114,
      "($": 1115,
      "Ġac": 1116,
      "Ġval": 1117,
      "ough": 1118,
      "Ġqu": 1119,
      "Tr": 1120,
      "Ġ%": 1121,
      "Ġ18": 1122,
      "32": 1123,
      "ful": 1124,
      "ray": 1125,
      "lp": 1126,
      "Ġour": 1127,
      "Data": 1128,
      "orld": 1129,
      "Ġfe": 1130,
      "Ġcre": 1131,
      "12": 1132,
      "Ġneed": 1133,
      "Ġ6": 1134,
      "plic": 1135,
      "irect": 1136,
      "press": 1137,
      "ale": 1138,
      "ule": 1139,
      "SS": 1140,
      "Ġob": 1141,
      "ww": 1142,
      "Ġ/**": 1143,
      "string": 1144,
      "not": 1145,
      "uring": 1146,
      "Ġafter": 1147,
      "min": 1148,
      "date": 1149,
      "lient": 1150,
      "AN": 1151,
      "ower": 1152,
      "Col": 1153,
      "Ġgr": 1154,
      "file": 1155,
      "ility": 1156,
      "Ġchar": 1157,
      "oun": 1158,
      "Ġprodu": 1159,
      "wn": 1160,
      "ember": 1161,
      "Ġ8": 1162,
      "ures": 1163,
      "ature": 1164,
      "als": 1165,
      "ĠCom": 1166,
      "CT": 1167,
      "itt": 1168,
      "sc": 1169,
      "ined": 1170,
      "ĉĉĉĉĉ": 1171,
      "ife": 1172,
      "Ġchild": 1173,
      "\":": 1174,
      "Ġloc": 1175,
      "Ġthrough": 1176,
      "rc": 1177,
      "ider": 1178,
      "location": 1179,
      "Ġtrans": 1180,
      "Ġbec": 1181,
      "000": 1182,
      "Ġthen": 1183,
      "pre": 1184,
      "ollow": 1185,
      "order": 1186,
      "ally": 1187,
      "eb": 1188,
      "Ġwhat": 1189,
      "ily": 1190,
      "Cont": 1191,
      "Exception": 1192,
      "ments": 1193,
      "ey": 1194,
      "value": 1195,
      "lection": 1196,
      "Set": 1197,
      "Ġmy": 1198,
      "Ġent": 1199,
      "')": 1200,
      "Ġwhere": 1201,
      "Ġ--": 1202,
      "uff": 1203,
      "arent": 1204,
      "ward": 1205,
      "work": 1206,
      "ĠĠĠĠĊ": 1207,
      "atus": 1208,
      "anc": 1209,
      "Error": 1210,
      "arget": 1211,
      "Ġlong": 1212,
      "':": 1213,
      "ĠAr": 1214,
      "cond": 1215,
      "Ġstring": 1216,
      "ten": 1217,
      "ream": 1218,
      "ts": 1219,
      "abel": 1220,
      "Ġhigh": 1221,
      "cept": 1222,
      "âĢĵ": 1223,
      "very": 1224,
      "meric": 1225,
      "resent": 1226,
      "new": 1227,
      "perty": 1228,
      "Ġwrit": 1229,
      "air": 1230,
      "ists": 1231,
      "ween": 1232,
      "Ġph": 1233,
      "Ġx": 1234,
      "ĠString": 1235,
      "ok": 1236,
      "Ġbr": 1237,
      "DE": 1238,
      "Ġfound": 1239,
      "\";": 1240,
      "ars": 1241,
      "];": 1242,
      "uc": 1243,
      "size": 1244,
      "16": 1245,
      "be": 1246,
      "Ġmany": 1247,
      "Ġimport": 1248,
      "ier": 1249,
      "Ġrec": 1250,
      "oy": 1251,
      "ffect": 1252,
      "chool": 1253,
      "Ġobject": 1254,
      "Qu": 1255,
      "ĠCon": 1256,
      "rol": 1257,
      "test": 1258,
      "ava": 1259,
      "ric": 1260,
      "Ġplay": 1261,
      "ines": 1262,
      "Test": 1263,
      "alth": 1264,
      "Object": 1265,
      "other": 1266,
      ".\"": 1267,
      "lean": 1268,
      "Ġlike": 1269,
      "Ġcould": 1270,
      "ank": 1271,
      "ices": 1272,
      "().": 1273,
      "bar": 1274,
      "ivers": 1275,
      "Ġcase": 1276,
      "iet": 1277,
      "action": 1278,
      "heck": 1279,
      "['": 1280,
      "Ġcal": 1281,
      "****************": 1282,
      "Ġfinal": 1283,
      "fore": 1284,
      "());": 1285,
      "ants": 1286,
      "ify": 1287,
      "ution": 1288,
      "Ġlist": 1289,
      "ever": 1290,
      "for": 1291,
      "az": 1292,
      "ĠEx": 1293,
      "Ġsm": 1294,
      "},": 1295,
      "Ġprivate": 1296,
      "any": 1297,
      "Ġhelp": 1298,
      "uch": 1299,
      "Ġfollow": 1300,
      "link": 1301,
      "UL": 1302,
      "Ġpol": 1303,
      "Ġstatic": 1304,
      "log": 1305,
      "Ġ10": 1306,
      "ttp": 1307,
      "umm": 1308,
      "Ġhand": 1309,
      "Ġacc": 1310,
      "/*": 1311,
      "Ġ/*": 1312,
      "ele": 1313,
      "');": 1314,
      "Ġmake": 1315,
      "Ġwell": 1316,
      "ĠIf": 1317,
      "ences": 1318,
      "over": 1319,
      "apt": 1320,
      "nav": 1321,
      "ince": 1322,
      "ternal": 1323,
      "Ġgener": 1324,
      "play": 1325,
      "='": 1326,
      "Ġ},": 1327,
      "Ġbetween": 1328,
      "MM": 1329,
      "function": 1330,
      "Ġdiffer": 1331,
      "fl": 1332,
      "ott": 1333,
      "orn": 1334,
      "ized": 1335,
      "par": 1336,
      "Ġsystem": 1337,
      "ĉĉĉĉĉĉĉĉ": 1338,
      "search": 1339,
      "ĠLicense": 1340,
      "by": 1341,
      "pp": 1342,
      "Ġright": 1343,
      "script": 1344,
      "iver": 1345,
      "index": 1346,
      "man": 1347,
      "Ġrequire": 1348,
      "Ġnumber": 1349,
      "Ġ7": 1350,
      "(),": 1351,
      "til": 1352,
      "Ġfil": 1353,
      "Ġ\\": 1354,
      "Ġed": 1355,
      "ement": 1356,
      "Ġstart": 1357,
      "']": 1358,
      "ĠAl": 1359,
      "her": 1360,
      "velop": 1361,
      "Get": 1362,
      "ME": 1363,
      "erson": 1364,
      "At": 1365,
      "ger": 1366,
      "Ġfl": 1367,
      "Ġdevelop": 1368,
      "Ġstate": 1369,
      "File": 1370,
      "ains": 1371,
      "try": 1372,
      "Ġyears": 1373,
      "64": 1374,
      "Ġcent": 1375,
      "indow": 1376,
      "face": 1377,
      "reak": 1378,
      "Ġmod": 1379,
      "formation": 1380,
      "ĠNew": 1381,
      "IC": 1382,
      "Ġdet": 1383,
      "Ġ///": 1384,
      "ler": 1385,
      "top": 1386,
      "ocument": 1387,
      "Ġbefore": 1388,
      "ĠAmeric": 1389,
      "Ġkey": 1390,
      "11": 1391,
      "ĠAn": 1392,
      "UT": 1393,
      "ting": 1394,
      "raph": 1395,
      "quot": 1396,
      "Ġsaid": 1397,
      "ps": 1398,
      "Ġread": 1399,
      "ond": 1400,
      "url": 1401,
      "public": 1402,
      "Ġear": 1403,
      "rem": 1404,
      "ouse": 1405,
      "Ġcall": 1406,
      "void": 1407,
      "list": 1408,
      "Ġmust": 1409,
      "Ġagain": 1410,
      "roll": 1411,
      "view": 1412,
      "Ġinv": 1413,
      "Ġext": 1414,
      "CO": 1415,
      "util": 1416,
      "Ġmin": 1417,
      "ground": 1418,
      "Ġsur": 1419,
      "ather": 1420,
      "ared": 1421,
      "ĠĠĠĠĠĠĠĠĠĠĠĠĠĠĠĠĠĠĠĠĠĠĠĠĠĠĠ": 1422,
      "Ġresp": 1423,
      "HE": 1424,
      "Ġassert": 1425,
      "ision": 1426,
      "Ref": 1427,
      "Ġsee": 1428,
      "18": 1429,
      "Ind": 1430,
      "clude": 1431,
      "define": 1432,
      "mod": 1433,
      "let": 1434,
      "ma": 1435,
      "Un": 1436,
      "!--": 1437,
      "wh": 1438,
      "Ġknow": 1439,
      ".</": 1440,
      "Ġ?": 1441,
      "umn": 1442,
      "ush": 1443,
      "Ġbeing": 1444,
      "Ġsign": 1445,
      "He": 1446,
      "ced": 1447,
      "inter": 1448,
      "Ġ199": 1449,
      "ets": 1450,
      "ann": 1451,
      "less": 1452,
      "ĠRe": 1453,
      "Ġfr": 1454,
      "table": 1455,
      "Ġmade": 1456,
      "Ġser": 1457,
      "Ġvery": 1458,
      "En": 1459,
      "oft": 1460,
      "Ġpass": 1461,
      "ness": 1462,
      "Ġ20": 1463,
      "####": 1464,
      "Ġwhile": 1465,
      "Ġsame": 1466,
      "time": 1467,
      "ism": 1468,
      "ified": 1469,
      "pace": 1470,
      "Class": 1471,
      "ION": 1472,
      "ware": 1473,
      "struct": 1474,
      "son": 1475,
      "ĠWh": 1476,
      "ah": 1477,
      "'t": 1478,
      "Ġ);": 1479,
      "Ġmethod": 1480,
      "Ġbel": 1481,
      "Ġarg": 1482,
      "Ġ9": 1483,
      "ives": 1484,
      "Ġrun": 1485,
      "Ġeach": 1486,
      "Ġsim": 1487,
      "ually": 1488,
      "path": 1489,
      "unc": 1490,
      "ken": 1491,
      "Ġjust": 1492,
      "Ġapp": 1493,
      "PE": 1494,
      "/**": 1495,
      "way": 1496,
      "fe": 1497,
      "user": 1498,
      "md": 1499,
      "reg": 1500,
      "ĠTr": 1501,
      "AS": 1502,
      "Node": 1503,
      "Ġnow": 1504,
      "rray": 1505,
      "ĠSh": 1506,
      "33": 1507,
      "load": 1508,
      "RO": 1509,
      "Ġown": 1510,
      "++": 1511,
      "Ġgroup": 1512,
      "oot": 1513,
      "0000": 1514,
      "Ġprocess": 1515,
      "aj": 1516,
      "length": 1517,
      "ason": 1518,
      "Ġmed": 1519,
      "Ġatt": 1520,
      "ural": 1521,
      "comm": 1522,
      "Ġcurrent": 1523,
      "ĠAs": 1524,
      "=\"+": 1525,
      "25": 1526,
      "imes": 1527,
      "By": 1528,
      "Im": 1529,
      "ience": 1530,
      "Ġeven": 1531,
      "lish": 1532,
      "Ġbecause": 1533,
      "gram": 1534,
      "angu": 1535,
      "Ġusing": 1536,
      "eter": 1537,
      "const": 1538,
      "Key": 1539,
      "].": 1540,
      "ui": 1541,
      "arm": 1542,
      "att": 1543,
      "gy": 1544,
      "oad": 1545,
      "lear": 1546,
      "Ar": 1547,
      "Se": 1548,
      "ived": 1549,
      "=\"../../": 1550,
      "go": 1551,
      "Ġway": 1552,
      "dis": 1553,
      "Sh": 1554,
      "ponse": 1555,
      "ummary": 1556,
      "item": 1557,
      "Time": 1558,
      "TR": 1559,
      "ager": 1560,
      "Ġcontent": 1561,
      "ĠYou": 1562,
      "201": 1563,
      "lob": 1564,
      "IS": 1565,
      "Ġevery": 1566,
      "Ġoper": 1567,
      "Element": 1568,
      "efore": 1569,
      "include": 1570,
      "Ġdoes": 1571,
      "aa": 1572,
      "Ġthose": 1573,
      "ury": 1574,
      "ĠFor": 1575,
      "Ġmon": 1576,
      "Ġshow": 1577,
      "uffer": 1578,
      "Ġsize": 1579,
      "Ġtitle": 1580,
      "pack": 1581,
      "ĠInd": 1582,
      "Equal": 1583,
      "Ġwater": 1584,
      "ology": 1585,
      "15": 1586,
      "Ġduring": 1587,
      "ister": 1588,
      "Ġart": 1589,
      "Ġworld": 1590,
      "Ġrep": 1591,
      "ght": 1592,
      "Ġcar": 1593,
      "ypes": 1594,
      "chn": 1595,
      "cription": 1596,
      "Param": 1597,
      "Ġbuild": 1598,
      "Ġlife": 1599,
      "ape": 1600,
      "fr": 1601,
      "ically": 1602,
      "FF": 1603,
      "Ġbeg": 1604,
      "iven": 1605,
      "Ġsupport": 1606,
      "Ġfind": 1607,
      "ession": 1608,
      "rop": 1609,
      "Ġbl": 1610,
      "med": 1611,
      "Ġthrow": 1612,
      "Ġhttp": 1613,
      "Ġcoun": 1614,
      "aking": 1615,
      "ential": 1616,
      "An": 1617,
      "idd": 1618,
      "ron": 1619,
      "Ġpoint": 1620,
      "ases": 1621,
      "aint": 1622,
      "ends": 1623,
      "ribut": 1624,
      "arn": 1625,
      ".âĢĿ": 1626,
      "iter": 1627,
      "sw": 1628,
      "ected": 1629,
      "Ġtext": 1630,
      "ainer": 1631,
      "())": 1632,
      "Ġerror": 1633,
      "Ġdec": 1634,
      "istory": 1635,
      "';": 1636,
      "Ġcomple": 1637,
      "ords": 1638,
      "Ġfield": 1639,
      "Ġdifferent": 1640,
      "itions": 1641,
      "Ġtem": 1642,
      "color": 1643,
      "ats": 1644,
      "uthor": 1645,
      "LA": 1646,
      "iev": 1647,
      "igned": 1648,
      "Ġinformation": 1649,
      "ĠCol": 1650,
      ">&": 1651,
      "orth": 1652,
      "mp": 1653,
      "Ġ});": 1654,
      "////////": 1655,
      "Ġexpect": 1656,
      "Info": 1657,
      "iron": 1658,
      "ĠSe": 1659,
      "tt": 1660,
      "On": 1661,
      "Ġfact": 1662,
      "Event": 1663,
      "ES": 1664,
      "iversity": 1665,
      "ĠAnd": 1666,
      "Ġsol": 1667,
      "Ġpar": 1668,
      "Ġdid": 1669,
      "Ġboth": 1670,
      "âĢľ": 1671,
      "Request": 1672,
      "input": 1673,
      "State": 1674,
      "Ġsk": 1675,
      "Ġdirect": 1676,
      "Index": 1677,
      "14": 1678,
      "bs": 1679,
      "Ġfam": 1680,
      "ization": 1681,
      "uf": 1682,
      "Ġmuch": 1683,
      "Ġgood": 1684,
      "icon": 1685,
      "50": 1686,
      "Ġ(!": 1687,
      "yn": 1688,
      "Ġdown": 1689,
      "Ġcor": 1690,
      "oolean": 1691,
      "Ġpat": 1692,
      "``": 1693,
      "Int": 1694,
      "aining": 1695,
      "body": 1696,
      "Config": 1697,
      "oh": 1698,
      "assert": 1699,
      "bers": 1700,
      "Query": 1701,
      "Ġeffect": 1702,
      "ector": 1703,
      "Ġevent": 1704,
      "Ġest": 1705,
      "sub": 1706,
      "ote": 1707,
      "ĠX": 1708,
      "Ġincre": 1709,
      "outh": 1710,
      "Wh": 1711,
      "Ġaut": 1712,
      "PI": 1713,
      "Ġarray": 1714,
      "Ġ-->": 1715,
      "Text": 1716,
      "Ġschool": 1717,
      "Ġlast": 1718,
      "ĉĉĉĉĉĉ": 1719,
      "Ġmem": 1720,
      "ained": 1721,
      "ouble": 1722,
      "Ġlook": 1723,
      "ctions": 1724,
      "ĠZ": 1725,
      "ĠThey": 1726,
      "left": 1727,
      "Ġelement": 1728,
      "Ġmet": 1729,
      "met": 1730,
      "Add": 1731,
      "anguage": 1732,
      "Ġgover": 1733,
      "uration": 1734,
      "Ġref": 1735,
      "UR": 1736,
      "https": 1737,
      "Path": 1738,
      ",\"": 1739,
      "config": 1740,
      "};": 1741,
      "ĠWe": 1742,
      "Ġserv": 1743,
      "api": 1744,
      "Ġpop": 1745,
      "Ġthree": 1746,
      "Ġ===": 1747,
      "thing": 1748,
      "Ġhum": 1749,
      "me": 1750,
      "Ġlink": 1751,
      "oci": 1752,
      "Ġ__": 1753,
      "ED": 1754,
      "Ġwithout": 1755,
      "ride": 1756,
      "AC": 1757,
      "ik": 1758,
      "ĠĠĊ": 1759,
      "View": 1760,
      "ĠRes": 1761,
      "ium": 1762,
      "Ġhealth": 1763,
      "Context": 1764,
      "acter": 1765,
      "urs": 1766,
      "Ġprot": 1767,
      "Ġ:=": 1768,
      "itor": 1769,
      "As": 1770,
      "itial": 1771,
      "ross": 1772,
      "Ġday": 1773,
      "ru": 1774,
      "Service": 1775,
      "Ġold": 1776,
      "30": 1777,
      "stance": 1778,
      "map": 1779,
      "ides": 1780,
      "amespace": 1781,
      "200": 1782,
      "Over": 1783,
      "Map": 1784,
      "ING": 1785,
      "come": 1786,
      "Ġtop": 1787,
      "Ġleft": 1788,
      "Ġpartic": 1789,
      "ency": 1790,
      "iving": 1791,
      "ident": 1792,
      "Ġcontin": 1793,
      "field": 1794,
      "Ġocc": 1795,
      "ä¸": 1796,
      "Ġchildren": 1797,
      "bt": 1798,
      "irt": 1799,
      "apache": 1800,
      "ission": 1801,
      "ĠIs": 1802,
      "Ġrequest": 1803,
      "els": 1804,
      "from": 1805,
      "iled": 1806,
      "ait": 1807,
      "Ġins": 1808,
      "Ġsrc": 1809,
      "For": 1810,
      "40": 1811,
      "Ġperson": 1812,
      "OT": 1813,
      "Ġposs": 1814,
      "ĠBut": 1815,
      "ĠSc": 1816,
      "ĠEng": 1817,
      "ĠOF": 1818,
      "Ġsmall": 1819,
      "ources": 1820,
      "group": 1821,
      "\"\"": 1822,
      "ottom": 1823,
      "uss": 1824,
      "AD": 1825,
      "aterial": 1826,
      "This": 1827,
      "Ġcalled": 1828,
      "loat": 1829,
      "Ġparam": 1830,
      "argin": 1831,
      "Form": 1832,
      "ks": 1833,
      "Ġallow": 1834,
      "[]": 1835,
      "Ġcolor": 1836,
      ".,": 1837,
      "ox": 1838,
      "Ġlevel": 1839,
      "Ġvis": 1840,
      "des": 1841,
      ";</": 1842,
      "Ġsecond": 1843,
      "Item": 1844,
      "rite": 1845,
      "create": 1846,
      "tribute": 1847,
      "bl": 1848,
      "55": 1849,
      ";&": 1850,
      "Ġ12": 1851,
      "Ġcreate": 1852,
      "block": 1853,
      "Ġexample": 1854,
      "viron": 1855,
      "Ġdep": 1856,
      "Ġorder": 1857,
      "Ġdefault": 1858,
      "default": 1859,
      "umer": 1860,
      "17": 1861,
      "ane": 1862,
      "IG": 1863,
      "Ġbody": 1864,
      "summary": 1865,
      "lay": 1866,
      "With": 1867,
      "dt": 1868,
      "Ġplace": 1869,
      "Ã©": 1870,
      "ĠĠĠĠĠĠĠĠĠĠĠĠĠĠĠĠĠĠĠĠĠĠĠĠĠĠĠĠĠĠĠ": 1871,
      "ports": 1872,
      "Ġpo": 1873,
      "Ġmov": 1874,
      "Ġcommun": 1875,
      "akes": 1876,
      "arge": 1877,
      "Array": 1878,
      "ided": 1879,
      "ags": 1880,
      "Ġstyle": 1881,
      "pty": 1882,
      "Ġz": 1883,
      "ULL": 1884,
      "ĠFr": 1885,
      "Ġbreak": 1886,
      "Ġlaw": 1887,
      "enu": 1888,
      "word": 1889,
      "ĠQ": 1890,
      "ĠAmerican": 1891,
      "error": 1892,
      "Of": 1893,
      "Ġimp": 1894,
      "Ġfollowing": 1895,
      "Ġsoc": 1896,
      "irc": 1897,
      "80": 1898,
      "width": 1899,
      "ĠOn": 1900,
      "Ġcond": 1901,
      "Ġtarget": 1902,
      "Ġcr": 1903,
      "valid": 1904,
      "================": 1905,
      "imit": 1906,
      "Ġtake": 1907,
      "ĠHow": 1908,
      "Ġorig": 1909,
      "ogle": 1910,
      "title": 1911,
      "66": 1912,
      "Ġcopy": 1913,
      "www": 1914,
      "ET": 1915,
      "Ġlead": 1916,
      "Ġopen": 1917,
      "ital": 1918,
      "22": 1919,
      "off": 1920,
      "Hand": 1921,
      "Ġcheck": 1922,
      "aster": 1923,
      "Ġstruct": 1924,
      "oss": 1925,
      "IL": 1926,
      "Ġappe": 1927,
      "ustom": 1928,
      "abled": 1929,
      "Al": 1930,
      "ination": 1931,
      "ither": 1932,
      "box": 1933,
      "Def": 1934,
      "css": 1935,
      "MP": 1936,
      "omen": 1937,
      "Ġlog": 1938,
      "Ġca": 1939,
      "day": 1940,
      "lished": 1941,
      "head": 1942,
      "result": 1943,
      "Man": 1944,
      "Size": 1945,
      "Ġresearch": 1946,
      "Or": 1947,
      "Ġ};": 1948,
      "Not": 1949,
      "rist": 1950,
      "my": 1951,
      "pan": 1952,
      "Ġav": 1953,
      "vert": 1954,
      "ird": 1955,
      "--------------------------------": 1956,
      "AB": 1957,
      "Ġpath": 1958,
      "Ġsom": 1959,
      "Ġmat": 1960,
      "ync": 1961,
      "Field": 1962,
      "Ġknown": 1963,
      "Code": 1964,
      "Ġcare": 1965,
      "Ġcode": 1966,
      "Ġpower": 1967,
      "13": 1968,
      "ulation": 1969,
      "aces": 1970,
      "âĢĶ": 1971,
      "ingle": 1972,
      "Ġgre": 1973,
      "Ġwant": 1974,
      "...": 1975,
      "Ġrece": 1976,
      "Result": 1977,
      "Ġappro": 1978,
      "Ġhere": 1979,
      "ior": 1980,
      "tribut": 1981,
      "Ġuser": 1982,
      "Ġtry": 1983,
      "ĠIN": 1984,
      "Ġsource": 1985,
      "de": 1986,
      "itional": 1987,
      "aut": 1988,
      "Ġ15": 1989,
      "Ġcell": 1990,
      "Ġimportant": 1991,
      "base": 1992,
      "Ġborder": 1993,
      "ilter": 1994,
      "MA": 1995,
      "Ġgreat": 1996,
      "Ġcour": 1997,
      "Ġprogram": 1998,
      "ene": 1999,
      "fin": 2000,
      "ches": 2001,
      "Ġke": 2002,
      "Ġfa": 2003,
      "ĠAN": 2004,
      "eturn": 2005,
      "Ġ16": 2006,
      "Message": 2007,
      "stand": 2008,
      "ENT": 2009,
      "Ġhead": 2010,
      "Ġexper": 2011,
      "Ġtechn": 2012,
      "info": 2013,
      "ĠUnited": 2014,
      "Ġjava": 2015,
      "web": 2016,
      "Ġsever": 2017,
      "aving": 2018,
      "count": 2019,
      "model": 2020,
      "Sc": 2021,
      "Ġgu": 2022,
      "Ġlocal": 2023,
      "Ġagainst": 2024,
      "plate": 2025,
      "place": 2026,
      "Ġincluding": 2027,
      "etwork": 2028,
      "oftware": 2029,
      "ĠUniversity": 2030,
      "Ġbackground": 2031,
      "LO": 2032,
      "Ġchang": 2033,
      "ĠĠĠĠĠĠĠĠĠĠĠĠĠĠĠĠĠĠĠĠĠĠĠĠ": 2034,
      "Ġsl": 2035,
      "Des": 2036,
      "Ġstill": 2037,
      "=\"#": 2038,
      "Ġgiven": 2039,
      "Ġmark": 2040,
      "no": 2041,
      "print": 2042,
      "lected": 2043,
      "alk": 2044,
      "plication": 2045,
      "ĠSystem": 2046,
      "object": 2047,
      "vironment": 2048,
      "User": 2049,
      "Ġmodel": 2050,
      "Ġorgan": 2051,
      "tes": 2052,
      "Ġlet": 2053,
      "=\"../../../../": 2054,
      "node": 2055,
      "Ġret": 2056,
      "Ġ17": 2057,
      "Ġnext": 2058,
      "Ġstudents": 2059,
      "ML": 2060,
      "ĠOr": 2061,
      "inc": 2062,
      "pression": 2063,
      "using": 2064,
      "Val": 2065,
      "Ġdistribut": 2066,
      "Ġexpl": 2067,
      "ven": 2068,
      "Ġdon": 2069,
      "Ġgrow": 2070,
      "Ġless": 2071,
      "ĠOR": 2072,
      "ails": 2073,
      "active": 2074,
      "ought": 2075,
      "Ġview": 2076,
      "uck": 2077,
      "Ġblock": 2078,
      "EX": 2079,
      "ilt": 2080,
      "iness": 2081,
      "adding": 2082,
      "Refer": 2083,
      "ift": 2084,
      "point": 2085,
      "ĠAll": 2086,
      "Comm": 2087,
      "=\"../": 2088,
      "Ġproble": 2089,
      "Ġpresent": 2090,
      "Ġmight": 2091,
      "](": 2092,
      "ended": 2093,
      "olv": 2094,
      "ĠPh": 2095,
      "agn": 2096,
      "cope": 2097,
      "ï¼": 2098,
      "ename": 2099,
      "Ġdi": 2100,
      "Ġcontext": 2101,
      "Ġgovern": 2102,
      "Ġmen": 2103,
      "Ġpres": 2104,
      "ittle": 2105,
      "ailable": 2106,
      ",âĢĿ": 2107,
      "iety": 2108,
      "Ġmain": 2109,
      "ording": 2110,
      "Ġdel": 2111,
      "Ġoften": 2112,
      "ĠAt": 2113,
      "Ġbook": 2114,
      "ithub": 2115,
      "lobal": 2116,
      "Ġproject": 2117,
      "ately": 2118,
      "Ġ<<": 2119,
      "Ġreal": 2120,
      "comp": 2121,
      "Ġnil": 2122,
      "It": 2123,
      "eters": 2124,
      "ateg": 2125,
      "ways": 2126,
      "urch": 2127,
      "start": 2128,
      "ians": 2129,
      "ugg": 2130,
      "ume": 2131,
      "Ġland": 2132,
      "Ġconf": 2133,
      "ole": 2134,
      "hip": 2135,
      "Ġtoo": 2136,
      "state": 2137,
      "duct": 2138,
      "Ġnon": 2139,
      "Ġaround": 2140,
      "ification": 2141,
      "dr": 2142,
      "down": 2143,
      "Ġcommon": 2144,
      "sm": 2145,
      "Build": 2146,
      "content": 2147,
      "uro": 2148,
      "ending": 2149,
      "func": 2150,
      "ponent": 2151,
      "ĠComm": 2152,
      "All": 2153,
      "Ġconsider": 2154,
      "arning": 2155,
      "TH": 2156,
      "Ġitem": 2157,
      "Ġwithin": 2158,
      "Ġanother": 2159,
      "ocus": 2160,
      "Ġbase": 2161,
      "Is": 2162,
      "Ġexp": 2163,
      "iod": 2164,
      "ivity": 2165,
      "Ġadv": 2166,
      "CE": 2167,
      "Ġsw": 2168,
      "ograph": 2169,
      "ina": 2170,
      "check": 2171,
      "Ġoptions": 2172,
      "ched": 2173,
      "Ġtri": 2174,
      "Ġperform": 2175,
      "Out": 2176,
      "ĠPr": 2177,
      "Ġspe": 2178,
      "Ġstd": 2179,
      "ĠGet": 2180,
      "Ġchange": 2181,
      "github": 2182,
      ")</": 2183,
      "mb": 2184,
      "ĠDe": 2185,
      "ender": 2186,
      "tings": 2187,
      "ĠĠĠĠĠĠĠĠĠĠĠĠĠĠĠĠĠĠĠĠĠĠĠĠĠĠĠĠĠĠĠĠĠĠĠ": 2188,
      "Ġrele": 2189,
      "Ġconfig": 2190,
      "Loc": 2191,
      "ansp": 2192,
      "Ġinput": 2193,
      "Ġinstance": 2194,
      "((": 2195,
      "hes": 2196,
      "doc": 2197,
      "ances": 2198,
      "lt": 2199,
      "Ġbeh": 2200,
      "Ġwidth": 2201,
      "ĠStates": 2202,
      "Ġbro": 2203,
      "uments": 2204,
      "ised": 2205,
      "Ġfood": 2206,
      "Ġstand": 2207,
      "Ġsuccess": 2208,
      "aps": 2209,
      "perties": 2210,
      "thers": 2211,
      "ĉĠĠĠ": 2212,
      "button": 2213,
      "ustr": 2214,
      "Table": 2215,
      "oin": 2216,
      "context": 2217,
      "Ġstudy": 2218,
      "Ġes": 2219,
      ">(": 2220,
      "ball": 2221,
      "ling": 2222,
      "ohn": 2223,
      "Ġpost": 2224,
      "Ġlater": 2225,
      "UN": 2226,
      "Up": 2227,
      "Ġnode": 2228,
      "lied": 2229,
      "label": 2230,
      "Ġthink": 2231,
      "Ser": 2232,
      "reate": 2233,
      "iable": 2234,
      "Ġdev": 2235,
      "ĠAss": 2236,
      "prot": 2237,
      "Ġinclude": 2238,
      "af": 2239,
      "TD": 2240,
      "itch": 2241,
      "por": 2242,
      "true": 2243,
      "Group": 2244,
      "Ġmus": 2245,
      "side": 2246,
      "])": 2247,
      "23": 2248,
      "24": 2249,
      "DO": 2250,
      "Ġ197": 2251,
      "Ġlight": 2252,
      "99": 2253,
      "Ġrequired": 2254,
      "icle": 2255,
      "Ġcontrol": 2256,
      "static": 2257,
      "une": 2258,
      "Color": 2259,
      "Ġtable": 2260,
      "Ġfew": 2261,
      "ship": 2262,
      "lick": 2263,
      "Ġuntil": 2264,
      "serv": 2265,
      "Log": 2266,
      "ret": 2267,
      "ability": 2268,
      "Ġaddress": 2269,
      "ules": 2270,
      "Ġtreat": 2271,
      "Ġfour": 2272,
      "odes": 2273,
      "db": 2274,
      "Ġposition": 2275,
      "<!--": 2276,
      "21": 2277,
      "ĠAp": 2278,
      "istr": 2279,
      "evel": 2280,
      "Ġ+=": 2281,
      "vious": 2282,
      "cer": 2283,
      "ension": 2284,
      "with": 2285,
      "Arg": 2286,
      "ql": 2287,
      "ĠLe": 2288,
      "Ġident": 2289,
      "Reg": 2290,
      "Ġsince": 2291,
      "alt": 2292,
      "Ġparent": 2293,
      "ploy": 2294,
      "font": 2295,
      "prov": 2296,
      "ĠThere": 2297,
      "ored": 2298,
      "\".": 2299,
      "gress": 2300,
      "Ġdocument": 2301,
      "Ġindex": 2302,
      "ius": 2303,
      "60": 2304,
      "call": 2305,
      "roid": 2306,
      "ively": 2307,
      "Ġnear": 2308,
      "query": 2309,
      "||": 2310,
      "tract": 2311,
      "ĠCl": 2312,
      "Ġteam": 2313,
      "cur": 2314,
      "Ġhuman": 2315,
      "ajor": 2316,
      "rad": 2317,
      "package": 2318,
      "nection": 2319,
      "ĠĠĠĠĠĠĠĠĠĠĠĠĠĠĠĠĠ": 2320,
      "Ġet": 2321,
      "Ġlarge": 2322,
      "Ġfore": 2323,
      "CH": 2324,
      "ĠNULL": 2325,
      "Ġaccess": 2326,
      "Ġredu": 2327,
      "ready": 2328,
      "olic": 2329,
      "Client": 2330,
      "Ġlanguage": 2331,
      "Ġ()": 2332,
      "ek": 2333,
      "Ġversion": 2334,
      "gt": 2335,
      "Ġarea": 2336,
      "max": 2337,
      "bed": 2338,
      "Fr": 2339,
      "Ġ100": 2340,
      "isk": 2341,
      "Ġcert": 2342,
      "ley": 2343,
      "Ġrefer": 2344,
      "lood": 2345,
      "From": 2346,
      "uary": 2347,
      "ormal": 2348,
      "dom": 2349,
      "But": 2350,
      "Ġsym": 2351,
      "ards": 2352,
      "Ġdisc": 2353,
      "Ġbest": 2354,
      "Response": 2355,
      "Property": 2356,
      "options": 2357,
      "Ġelect": 2358,
      "Ġhome": 2359,
      "idual": 2360,
      "onse": 2361,
      "Override": 2362,
      "Ġeng": 2363,
      "Ġ198": 2364,
      "TI": 2365,
      "Call": 2366,
      "ĠShe": 2367,
      "Ġdem": 2368,
      "ĠMar": 2369,
      "ĠCan": 2370,
      "refer": 2371,
      "earch": 2372,
      "Ġmax": 2373,
      "ĠÐ": 2374,
      "Inter": 2375,
      "icult": 2376,
      "iction": 2377,
      "ĠChrist": 2378,
      "Ġresponse": 2379,
      "Ġsay": 2380,
      "Ġbool": 2381,
      "Ġturn": 2382,
      "aim": 2383,
      "Manager": 2384,
      "image": 2385,
      "lib": 2386,
      "Ġeither": 2387,
      "lang": 2388,
      "itive": 2389,
      "Ġiss": 2390,
      "Pr": 2391,
      "tx": 2392,
      "ĠGod": 2393,
      "ung": 2394,
      "has": 2395,
      "roller": 2396,
      "ths": 2397,
      "last": 2398,
      "amed": 2399,
      "Fact": 2400,
      "And": 2401,
      "bottom": 2402,
      "ories": 2403,
      "*/": 2404,
      "Ġcap": 2405,
      "Ġspecific": 2406,
      "light": 2407,
      "Model": 2408,
      "Ġprof": 2409,
      "Count": 2410,
      "stru": 2411,
      "Ġquest": 2412,
      "ĠWhen": 2413,
      "Ġprom": 2414,
      "Input": 2415,
      "hem": 2416,
      "len": 2417,
      "Ġshort": 2418,
      "Ġlittle": 2419,
      "btn": 2420,
      "Ġupon": 2421,
      "oman": 2422,
      "ids": 2423,
      "Ġwhe": 2424,
      "ĠAd": 2425,
      "Ġ->": 2426,
      "reed": 2427,
      "Ġ,": 2428,
      "ead": 2429,
      "Ġexist": 2430,
      "Ġpract": 2431,
      "Ġleg": 2432,
      "arr": 2433,
      "ĠPl": 2434,
      "Pl": 2435,
      "Ġbased": 2436,
      "Ð°": 2437,
      "Ġreport": 2438,
      "Ġla": 2439,
      "Str": 2440,
      "Ġide": 2441,
      "45": 2442,
      "ĠĠĠĠĠĠĠĠĠĠĠĠĠĠ": 2443,
      "event": 2444,
      "Ġeduc": 2445,
      "Ġearly": 2446,
      "ĠTo": 2447,
      "ĠThese": 2448,
      "method": 2449,
      "ony": 2450,
      "lose": 2451,
      "pen": 2452,
      "Ġnever": 2453,
      "used": 2454,
      "Icon": 2455,
      "Ġmult": 2456,
      "ĠSet": 2457,
      "ured": 2458,
      "ffic": 2459,
      "Ġdiv": 2460,
      "Ġput": 2461,
      "Ġanim": 2462,
      "ral": 2463,
      "ired": 2464,
      "pected": 2465,
      "NA": 2466,
      "Âł": 2467,
      "Ġcommand": 2468,
      "Ġproduct": 2469,
      "CK": 2470,
      "pecial": 2471,
      "namespace": 2472,
      "Ġfin": 2473,
      "Ġavailable": 2474,
      "Ġvol": 2475,
      "ique": 2476,
      "Ġfull": 2477,
      "Ġfamily": 2478,
      "ibr": 2479,
      "Ġeas": 2480,
      "Ġseveral": 2481,
      "Mod": 2482,
      "Ġenc": 2483,
      "enn": 2484,
      "client": 2485,
      "bol": 2486,
      "style": 2487,
      "Date": 2488,
      "Util": 2489,
      "osp": 2490,
      "US": 2491,
      "Ġpub": 2492,
      "Ġservice": 2493,
      "If": 2494,
      "Ġdeath": 2495,
      "Ġperm": 2496,
      "YPE": 2497,
      "29": 2498,
      "Ġmessage": 2499,
      "Ġteach": 2500,
      "null": 2501,
      "Trans": 2502,
      "py": 2503,
      "Ð¾": 2504,
      "ered": 2505,
      "Cl": 2506,
      "Ġmar": 2507,
      "Ġ14": 2508,
      "Ġdise": 2509,
      "Ġkeep": 2510,
      "ĠJohn": 2511,
      "67": 2512,
      "Dis": 2513,
      "Ġindiv": 2514,
      "ites": 2515,
      "ison": 2516,
      "ifier": 2517,
      "aced": 2518,
      "Ġassoci": 2519,
      "current": 2520,
      "Ġinterest": 2521,
      "leg": 2522,
      "conom": 2523,
      "build": 2524,
      "ĠĠĠĠĠĠĠĠĊ": 2525,
      "oud": 2526,
      "ention": 2527,
      "New": 2528,
      "ptr": 2529,
      "ots": 2530,
      "page": 2531,
      "header": 2532,
      "plement": 2533,
      "Stream": 2534,
      "({": 2535,
      "opyright": 2536,
      "Ġbus": 2537,
      "nect": 2538,
      "ĠĠĠĠĠĠĠĠĠĠĠĠ": 2539,
      "Ġrest": 2540,
      "Ġvalues": 2541,
      "HT": 2542,
      "Ġter": 2543,
      "No": 2544,
      "Ġhistory": 2545,
      "Ġprint": 2546,
      "cast": 2547,
      "Ġund": 2548,
      "hand": 2549,
      "acy": 2550,
      "ai": 2551,
      "OP": 2552,
      "rec": 2553,
      "epend": 2554,
      "inary": 2555,
      "Ġcome": 2556,
      "ĠĠĠĠĠĠĠĠĠĠĠĠĊ": 2557,
      "Ġestab": 2558,
      "php": 2559,
      "uture": 2560,
      "ught": 2561,
      "ached": 2562,
      "google": 2563,
      "ĠDr": 2564,
      "Ġmaterial": 2565,
      "ogn": 2566,
      "au": 2567,
      "oded": 2568,
      "DI": 2569,
      "Ġoriginal": 2570,
      "now": 2571,
      "Ġbu": 2572,
      "ĠTest": 2573,
      "********************************": 2574,
      "References": 2575,
      "ĠâĢĺ": 2576,
      "Ġwomen": 2577,
      "Ġfree": 2578,
      "Ġport": 2579,
      "flow": 2580,
      "Ġdescri": 2581,
      "ONT": 2582,
      "rows": 2583,
      "Ġnum": 2584,
      "Ġ((": 2585,
      "Ġbecame": 2586,
      "alf": 2587,
      "run": 2588,
      "cho": 2589,
      "upport": 2590,
      "array": 2591,
      "IP": 2592,
      "Ġcharacter": 2593,
      "version": 2594,
      "Ġunderstand": 2595,
      "Enc": 2596,
      "Ġmeans": 2597,
      "){": 2598,
      "ĠNo": 2599,
      "Ġrange": 2600,
      "Ġindividual": 2601,
      "ĠBrit": 2602,
      "finished": 2603,
      "xy": 2604,
      "core": 2605,
      "Ġlinks": 2606,
      "Ġpossible": 2607,
      "lex": 2608,
      "atter": 2609,
      "ĠAdd": 2610,
      "idget": 2611,
      "ĠCal": 2612,
      "ĠList": 2613,
      "ãģ": 2614,
      "çļ": 2615,
      "sk": 2616,
      "request": 2617,
      "ecess": 2618,
      "Ġdest": 2619,
      "ĠEn": 2620,
      "Pos": 2621,
      "Ġcount": 2622,
      "ĠIS": 2623,
      "Ġbas": 2624,
      "olution": 2625,
      "ergy": 2626,
      "ĠGr": 2627,
      "Status": 2628,
      "Builder": 2629,
      "icro": 2630,
      "Ġdesign": 2631,
      "ves": 2632,
      "orage": 2633,
      "ried": 2634,
      "Method": 2635,
      "case": 2636,
      "append": 2637,
      "Ġdisplay": 2638,
      "aves": 2639,
      "ixed": 2640,
      "çļĦ": 2641,
      "Ġhapp": 2642,
      "sl": 2643,
      "ideo": 2644,
      "Ġ13": 2645,
      "Ġbetter": 2646,
      "Ġabove": 2647,
      "Ġperiod": 2648,
      "ental": 2649,
      "ably": 2650,
      "aly": 2651,
      "ĠNational": 2652,
      "Ġair": 2653,
      "Ġ/>": 2654,
      "ĠHowever": 2655,
      "aken": 2656,
      "Ġmajor": 2657,
      "ternational": 2658,
      "Ġtimes": 2659,
      "Ad": 2660,
      "Ġseem": 2661,
      "TE": 2662,
      "args": 2663,
      "Ġbecome": 2664,
      "ãĢ": 2665,
      "opt": 2666,
      "erc": 2667,
      "ĠĠĠĠĠĠĠĠĠĠ": 2668,
      "char": 2669,
      "Ġplan": 2670,
      "27": 2671,
      "aged": 2672,
      "equal": 2673,
      "Ġdistributed": 2674,
      "Ġenvironment": 2675,
      "Ġheight": 2676,
      "option": 2677,
      "child": 2678,
      "ĠTHE": 2679,
      "hold": 2680,
      "Ġ30": 2681,
      "elete": 2682,
      "ills": 2683,
      "Ġpage": 2684,
      "wards": 2685,
      "ĠIm": 2686,
      "Met": 2687,
      "imate": 2688,
      "irtual": 2689,
      "ators": 2690,
      "ones": 2691,
      "otype": 2692,
      "fa": 2693,
      "AP": 2694,
      "Ġmargin": 2695,
      "Ġoutput": 2696,
      "ĠSee": 2697,
      "Ġresults": 2698,
      "Oper": 2699,
      "Ġgl": 2700,
      "Ġdone": 2701,
      "Ġsingle": 2702,
      "Ġgovernment": 2703,
      "position": 2704,
      "});": 2705,
      "urope": 2706,
      "Ġdevelopment": 2707,
      "sy": 2708,
      "Ġfar": 2709,
      "Ġclear": 2710,
      "cover": 2711,
      "MMMM": 2712,
      "atural": 2713,
      "Base": 2714,
      "annel": 2715,
      "ĠâĢĶ": 2716,
      "atures": 2717,
      "ering": 2718,
      "Ġproperty": 2719,
      "Ġside": 2720,
      "Ðµ": 2721,
      "Ġamong": 2722,
      "ĠMan": 2723,
      "28": 2724,
      "Ġalways": 2725,
      "ATE": 2726,
      "rect": 2727,
      "unfinished": 2728,
      "rix": 2729,
      "Ġauthor": 2730,
      "though": 2731,
      "Ġsocial": 2732,
      "dev": 2733,
      "do": 2734,
      "urther": 2735,
      "Ġalready": 2736,
      "ĠReg": 2737,
      "Ġmill": 2738,
      "navbar": 2739,
      "Ġgot": 2740,
      "ued": 2741,
      "Ġlow": 2742,
      "atab": 2743,
      "Ġrepresent": 2744,
      "Ġcountry": 2745,
      "39": 2746,
      "We": 2747,
      "Ġyoung": 2748,
      "uccess": 2749,
      "oms": 2750,
      "Ġmean": 2751,
      "tra": 2752,
      "ls": 2753,
      "Ġalong": 2754,
      "AG": 2755,
      "ĠWorld": 2756,
      "json": 2757,
      "ours": 2758,
      "Ġwon": 2759,
      "signed": 2760,
      "Ġphys": 2761,
      "True": 2762,
      "img": 2763,
      "Ġfoot": 2764,
      "End": 2765,
      "Be": 2766,
      "REF": 2767,
      "System": 2768,
      "Ġben": 2769,
      "ĠUS": 2770,
      "ĠCent": 2771,
      "Ġinitial": 2772,
      "jav": 2773,
      "height": 2774,
      "require": 2775,
      "chema": 2776,
      "dl": 2777,
      "gen": 2778,
      "Em": 2779,
      "Ġboolean": 2780,
      "Ġant": 2781,
      "Line": 2782,
      "istor": 2783,
      "ply": 2784,
      "++)": 2785,
      "iple": 2786,
      "posed": 2787,
      "Ã¡": 2788,
      "oop": 2789,
      "push": 2790,
      "Ġrecord": 2791,
      "Ġparticular": 2792,
      "Ġlearn": 2793,
      "Gener": 2794,
      "CC": 2795,
      "ĉĊ": 2796,
      "ibility": 2797,
      "ilar": 2798,
      "ĠBe": 2799,
      "ently": 2800,
      "Ġarr": 2801,
      "uid": 2802,
      "Ġcult": 2803,
      "Ġthings": 2804,
      "Ġtre": 2805,
      "Par": 2806,
      "net": 2807,
      "open": 2808,
      "Ġra": 2809,
      "68": 2810,
      "ĠWar": 2811,
      "ĠMay": 2812,
      "Ġlength": 2813,
      "Ġothers": 2814,
      "ething": 2815,
      "HO": 2816,
      "endif": 2817,
      "agement": 2818,
      "src": 2819,
      "Ġcame": 2820,
      "strong": 2821,
      "Ġdays": 2822,
      "post": 2823,
      "Ġ\"\"\"": 2824,
      "aper": 2825,
      "Bar": 2826,
      "Ġpolit": 2827,
      "ales": 2828,
      "Ġrad": 2829,
      "ĠBy": 2830,
      "Handler": 2831,
      "Ġonce": 2832,
      "ae": 2833,
      "Ġprovide": 2834,
      "Options": 2835,
      "find": 2836,
      "Ġenergy": 2837,
      "ĠGerm": 2838,
      "std": 2839,
      "Ġcause": 2840,
      "CL": 2841,
      "Ġaction": 2842,
      "Dr": 2843,
      "ERR": 2844,
      "Ġcur": 2845,
      "[\"": 2846,
      "mt": 2847,
      "ĠSp": 2848,
      "Ġdue": 2849,
      "_.": 2850,
      "75": 2851,
      "Ġmeas": 2852,
      "stit": 2853,
      "ï¼Į": 2854,
      "44": 2855,
      "iddle": 2856,
      "ĠTe": 2857,
      "Ġpot": 2858,
      "ĠBl": 2859,
      "ounc": 2860,
      "meta": 2861,
      "obj": 2862,
      "Ġmatch": 2863,
      "issions": 2864,
      "yles": 2865,
      "Rec": 2866,
      "ĠCON": 2867,
      "Ġable": 2868,
      "Ġexec": 2869,
      "Ġwar": 2870,
      "Source": 2871,
      "65": 2872,
      "Ġaway": 2873,
      "berg": 2874,
      "Ap": 2875,
      "first": 2876,
      "init": 2877,
      "dir": 2878,
      "idence": 2879,
      "Ġtyp": 2880,
      "Ġdiff": 2881,
      "status": 2882,
      "most": 2883,
      "Ġcomput": 2884,
      "update": 2885,
      "Ġthought": 2886,
      "Token": 2887,
      "Ġmap": 2888,
      "adata": 2889,
      "creen": 2890,
      "Content": 2891,
      "Ġ25": 2892,
      "rel": 2893,
      "eger": 2894,
      "ĠGener": 2895,
      "elt": 2896,
      "'>": 2897,
      "Component": 2898,
      "server": 2899,
      "element": 2900,
      "Point": 2901,
      "before": 2902,
      "ication": 2903,
      "FA": 2904,
      "Ġoffic": 2905,
      "Ġcertain": 2906,
      "Nav": 2907,
      "Ġstep": 2908,
      "ĠYork": 2909,
      "false": 2910,
      "ĠEurope": 2911,
      "Ġhouse": 2912,
      "uint": 2913,
      "Ġrole": 2914,
      "Ġhard": 2915,
      "ba": 2916,
      "Ġtrad": 2917,
      "Ġsent": 2918,
      "ĠWest": 2919,
      "IM": 2920,
      "ĠPar": 2921,
      "Ġgive": 2922,
      "Ġbegin": 2923,
      "Ġwindow": 2924,
      "Ġcost": 2925,
      "Instance": 2926,
      "next": 2927,
      "mem": 2928,
      "OL": 2929,
      "sole": 2930,
      "select": 2931,
      "Null": 2932,
      "ilit": 2933,
      "ĠCont": 2934,
      "struction": 2935,
      "Ġey": 2936,
      "Command": 2937,
      "EL": 2938,
      "attr": 2939,
      "Ġsoftware": 2940,
      "ival": 2941,
      "ops": 2942,
      "Ġterm": 2943,
      "oph": 2944,
      "Ġwhether": 2945,
      "Function": 2946,
      "ĠGe": 2947,
      "Ġlarg": 2948,
      "ux": 2949,
      "Ġfri": 2950,
      "48": 2951,
      "Ġfont": 2952,
      "ires": 2953,
      "section": 2954,
      "(&": 2955,
      "Ġbeliev": 2956,
      "ĠCar": 2957,
      "Sub": 2958,
      "Ġobt": 2959,
      "Ed": 2960,
      "ump": 2961,
      "Ġinfl": 2962,
      "Ġgen": 2963,
      "Ġlimit": 2964,
      "Ġamount": 2965,
      "Ġimage": 2966,
      "riter": 2967,
      "Ġlik": 2968,
      "Ġdouble": 2969,
      "see": 2970,
      "imary": 2971,
      "Ġ\"\\": 2972,
      "oney": 2973,
      "ĠBr": 2974,
      "]);": 2975,
      "Ġaccount": 2976,
      "Ġurl": 2977,
      "EE": 2978,
      "Equals": 2979,
      "ialog": 2980,
      "Version": 2981,
      "eral": 2982,
      "Ġabs": 2983,
      "illi": 2984,
      "Ġexpress": 2985,
      "png": 2986,
      "Ġspecial": 2987,
      "heet": 2988,
      "////////////////": 2989,
      "Off": 2990,
      "semb": 2991,
      "Number": 2992,
      "Ġlay": 2993,
      "Image": 2994,
      "%%": 2995,
      "Ġage": 2996,
      "ĠHis": 2997,
      "ĠInt": 2998,
      "idden": 2999,
      "uation": 3000,
      "38": 3001,
      "lease": 3002,
      "ĠEnglish": 3003,
      "########": 3004,
      "abs": 3005,
      "Ġworks": 3006,
      "Ġpack": 3007,
      "Ġask": 3008,
      "ĠEX": 3009,
      "ĠState": 3010,
      "ĠSouth": 3011,
      "Ġcreated": 3012,
      "100": 3013,
      "Ġcannot": 3014,
      "Ġcity": 3015,
      "ourn": 3016,
      "70": 3017,
      "Ġdeterm": 3018,
      "Ġwriting": 3019,
      "can": 3020,
      "ĉĉĉĉĉĉĉ": 3021,
      "35": 3022,
      "thern": 3023,
      "Ġfeel": 3024,
      "UE": 3025,
      "Ġload": 3026,
      "buf": 3027,
      "Buffer": 3028,
      "ged": 3029,
      "Ġtot": 3030,
      "bit": 3031,
      "Ġsubject": 3032,
      "align": 3033,
      "ief": 3034,
      "TO": 3035,
      "Ġheart": 3036,
      "Ġvalid": 3037,
      "Start": 3038,
      "rowser": 3039,
      "tributes": 3040,
      "ascript": 3041,
      "ebug": 3042,
      "module": 3043,
      "Ġdom": 3044,
      "ĠAf": 3045,
      "Ġpur": 3046,
      "Ġ($": 3047,
      "%;": 3048,
      "ĠĠĠĠĠĠĠĠĠĠĠĠĠĠĠĠĠĠĠĠĠ": 3049,
      "ĠAb": 3050,
      "ĠSchool": 3051,
      "ĠObject": 3052,
      "Ġkind": 3053,
      "Ð¸": 3054,
      "Ġinc": 3055,
      "34": 3056,
      "Ġcentury": 3057,
      "Ġprotected": 3058,
      "pose": 3059,
      "ABLE": 3060,
      "uggest": 3061,
      "sg": 3062,
      "Ġqual": 3063,
      "SP": 3064,
      "Ġnone": 3065,
      "Ġhowever": 3066,
      "\").": 3067,
      "SC": 3068,
      "ted": 3069,
      "Ġther": 3070,
      "ounds": 3071,
      "Factory": 3072,
      "Ġtypes": 3073,
      "De": 3074,
      "rior": 3075,
      "Ġconditions": 3076,
      "Block": 3077,
      "nown": 3078,
      "atabase": 3079,
      "Ġstatus": 3080,
      "Ġcirc": 3081,
      "umb": 3082,
      "Ġ50": 3083,
      "Link": 3084,
      "ĉĠ": 3085,
      "\"),": 3086,
      "Ġtransp": 3087,
      "unk": 3088,
      "Ġhaving": 3089,
      "raft": 3090,
      "Ġprovided": 3091,
      "container": 3092,
      "Prov": 3093,
      "Ġ11": 3094,
      "ological": 3095,
      "Ġtook": 3096,
      "Ġeconom": 3097,
      "Ġhold": 3098,
      "Ġpay": 3099,
      "Ġexpected": 3100,
      "Ġhost": 3101,
      "write": 3102,
      "Ġsuper": 3103,
      "apter": 3104,
      "Ġver": 3105,
      "expected": 3106,
      "oper": 3107,
      "menu": 3108,
      "Ġclient": 3109,
      "ĠMed": 3110,
      "Ġbi": 3111,
      "yc": 3112,
      "osed": 3113,
      "ude": 3114,
      "eed": 3115,
      "abor": 3116,
      "aring": 3117,
      "ising": 3118,
      "Action": 3119,
      "aging": 3120,
      "Ġcompon": 3121,
      "ada": 3122,
      "parent": 3123,
      "uly": 3124,
      "Ass": 3125,
      "ze": 3126,
      "INT": 3127,
      "Ġcourse": 3128,
      "Ġleast": 3129,
      "Ġann": 3130,
      "Ġuint": 3131,
      "Ġspace": 3132,
      "Resource": 3133,
      "Ġfail": 3134,
      "Ġ!==": 3135,
      "itted": 3136,
      "Ġblood": 3137,
      "Ġcomb": 3138,
      "Ġspecies": 3139,
      "Ġnecess": 3140,
      "Ġsure": 3141,
      "Ġbusiness": 3142,
      "_,": 3143,
      "mark": 3144,
      "Ġrights": 3145,
      "ocket": 3146,
      "ero": 3147,
      "ĠAm": 3148,
      "Ġseries": 3149,
      "book": 3150,
      "aph": 3151,
      "ugin": 3152,
      "roy": 3153,
      "alys": 3154,
      "igger": 3155,
      "ging": 3156,
      "Ġequ": 3157,
      "oice": 3158,
      "Us": 3159,
      "ledge": 3160,
      "69": 3161,
      "ns": 3162,
      "Ġtw": 3163,
      "Ġregion": 3164,
      "What": 3165,
      "Ġexcept": 3166,
      "ĠFl": 3167,
      "ARR": 3168,
      "External": 3169,
      "Ġtask": 3170,
      "izer": 3171,
      "Ġele": 3172,
      "Ġseason": 3173,
      "Ġmaking": 3174,
      "Ġthrows": 3175,
      "ands": 3176,
      "rl": 3177,
      "App": 3178,
      "igation": 3179,
      "Ġsomething": 3180,
      "ients": 3181,
      "stream": 3182,
      "II": 3183,
      "Page": 3184,
      "ĠWith": 3185,
      "ols": 3186,
      "})": 3187,
      "Ġmembers": 3188,
      "Ġflow": 3189,
      "ĠReturn": 3190,
      "elves": 3191,
      "enses": 3192,
      "ĠJan": 3193,
      "Ġprevent": 3194,
      "close": 3195,
      "part": 3196,
      "anch": 3197,
      "ague": 3198,
      "\"]": 3199,
      "igr": 3200,
      "ĠAct": 3201,
      "Ġsays": 3202,
      "Ġlabel": 3203,
      "gle": 3204,
      "efined": 3205,
      "Ġsignific": 3206,
      "Ġgeneral": 3207,
      "ĠMr": 3208,
      "kit": 3209,
      "Ġdisease": 3210,
      "sequ": 3211,
      "Default": 3212,
      "SON": 3213,
      "uses": 3214,
      "ĠCount": 3215,
      "inition": 3216,
      "FI": 3217,
      "vers": 3218,
      "Ġ{@": 3219,
      "ĠCopyright": 3220,
      "ĠProject": 3221,
      "Ġcover": 3222,
      "olved": 3223,
      "Ġwords": 3224,
      "ĠEd": 3225,
      "Ġplant": 3226,
      "ĠNorth": 3227,
      "ĠANY": 3228,
      "Ġprevious": 3229,
      "num": 3230,
      "```": 3231,
      "Ġve": 3232,
      "ipp": 3233,
      "javascript": 3234,
      "otion": 3235,
      "else": 3236,
      "undle": 3237,
      "Ġstrong": 3238,
      "Ġcallback": 3239,
      "ĠNone": 3240,
      "IV": 3241,
      "Ġrisk": 3242,
      "Lay": 3243,
      "EXT": 3244,
      "ÑĤ": 3245,
      "iation": 3246,
      "cal": 3247,
      "Ġsite": 3248,
      "Ġtoget": 3249,
      "90": 3250,
      "Run": 3251,
      "Ġtogether": 3252,
      "Ġred": 3253,
      "Ġvarious": 3254,
      "target": 3255,
      "Ġdate": 3256,
      "ĠDo": 3257,
      "ĠDes": 3258,
      "Attribute": 3259,
      "remove": 3260,
      "ceed": 3261,
      "Ġthough": 3262,
      "private": 3263,
      "Ġfre": 3264,
      "LASS": 3265,
      "fect": 3266,
      "prototype": 3267,
      "Format": 3268,
      "pc": 3269,
      "Act": 3270,
      "Child": 3271,
      "Ġword": 3272,
      "Ġapplic": 3273,
      "Ġplayers": 3274,
      "Ġcatch": 3275,
      "aaaa": 3276,
      "Ġauto": 3277,
      "Ġfac": 3278,
      "Ġchanges": 3279,
      "java": 3280,
      "Ġareas": 3281,
      "rodu": 3282,
      "Read": 3283,
      "ustral": 3284,
      "tries": 3285,
      "ises": 3286,
      "amm": 3287,
      "Ġevents": 3288,
      "final": 3289,
      "Ġbenef": 3290,
      "').": 3291,
      "idge": 3292,
      "iff": 3293,
      "amework": 3294,
      "iles": 3295,
      "host": 3296,
      "ster": 3297,
      "Ġsit": 3298,
      "imum": 3299,
      "ope": 3300,
      "You": 3301,
      "Ġtotal": 3302,
      "uten": 3303,
      "tempt": 3304,
      "Ġactiv": 3305,
      "Ġseen": 3306,
      "FONT": 3307,
      "Ġ[]": 3308,
      "Ġindic": 3309,
      "vis": 3310,
      "Ġresource": 3311,
      "number": 3312,
      "ĠBritish": 3313,
      "Ġsimilar": 3314,
      "bum": 3315,
      "Ġproblem": 3316,
      "47": 3317,
      "oke": 3318,
      "istic": 3319,
      "Ġbegan": 3320,
      "gl": 3321,
      "\"));": 3322,
      "ips": 3323,
      "oly": 3324,
      "26": 3325,
      "Fl": 3326,
      "response": 3327,
      "Ġpadding": 3328,
      "Ġoption": 3329,
      "medi": 3330,
      "amb": 3331,
      "lin": 3332,
      "Ġtell": 3333,
      "Ġreason": 3334,
      "ategory": 3335,
      "ĠKing": 3336,
      "Ġpopulation": 3337,
      "stant": 3338,
      "Ġopt": 3339,
      "atory": 3340,
      "adow": 3341,
      "Ġ]": 3342,
      "Column": 3343,
      "åı": 3344,
      "oon": 3345,
      "Ġnetwork": 3346,
      "Ġtown": 3347,
      "ouch": 3348,
      "Ġclose": 3349,
      "Ġdraw": 3350,
      "Ġpers": 3351,
      "Ġnatural": 3352,
      "Ġfuture": 3353,
      "era": 3354,
      "ART": 3355,
      "Ġlearning": 3356,
      "Ġenough": 3357,
      "Ġpress": 3358,
      "Window": 3359,
      "37": 3360,
      "ĠAfric": 3361,
      "Ġfall": 3362,
      "Ġyet": 3363,
      "ĠOne": 3364,
      "Params": 3365,
      "Ġpast": 3366,
      "cell": 3367,
      "Ġbehav": 3368,
      "ries": 3369,
      "Ġaffect": 3370,
      "There": 3371,
      "gre": 3372,
      "Ġbit": 3373,
      "Ġbir": 3374,
      "ĠMin": 3375,
      "oved": 3376,
      "aff": 3377,
      "Ġill": 3378,
      "Ġshall": 3379,
      "udd": 3380,
      "andom": 3381,
      "aught": 3382,
      "Ġsuggest": 3383,
      "uit": 3384,
      "STR": 3385,
      "ĠWhat": 3386,
      "Check": 3387,
      "Ġlen": 3388,
      "gn": 3389,
      "pass": 3390,
      "ament": 3391,
      "Create": 3392,
      "Ġobj": 3393,
      "refix": 3394,
      "ĠClass": 3395,
      "Encoded": 3396,
      "Ġmind": 3397,
      "ä»": 3398,
      "TYPE": 3399,
      "acity": 3400,
      "Server": 3401,
      "Ġmusic": 3402,
      "Ġgame": 3403,
      "Ġpain": 3404,
      "Ġobserv": 3405,
      "ilities": 3406,
      "Ġdecl": 3407,
      "Label": 3408,
      "iler": 3409,
      "ney": 3410,
      "Ġconc": 3411,
      "Ġlate": 3412,
      "asing": 3413,
      "uk": 3414,
      "Ġassociated": 3415,
      "Ġgoing": 3416,
      "Ġcolumn": 3417,
      "Task": 3418,
      "ese": 3419,
      "ffff": 3420,
      "lege": 3421,
      "IO": 3422,
      "filter": 3423,
      "Ġcreat": 3424,
      "Comp": 3425,
      "alysis": 3426,
      "Ġcustom": 3427,
      "Ġequal": 3428,
      "atal": 3429,
      "atform": 3430,
      "Ġ<!--": 3431,
      "Ġ>=": 3432,
      "Ġpercent": 3433,
      "UP": 3434,
      "Ġoffer": 3435,
      "rest": 3436,
      "Ġsix": 3437,
      "\\\"": 3438,
      "that": 3439,
      "ĠSw": 3440,
      "Ġwrite": 3441,
      "istry": 3442,
      "Ġfurther": 3443,
      "rown": 3444,
      "Length": 3445,
      "Ġprote": 3446,
      "irm": 3447,
      "88": 3448,
      "PO": 3449,
      "Ġarch": 3450,
      "Hel": 3451,
      "Box": 3452,
      ":</": 3453,
      "Ġfive": 3454,
      "Ġappear": 3455,
      "ibrary": 3456,
      "Ð½": 3457,
      "gener": 3458,
      "format": 3459,
      "Ġacross": 3460,
      "ĠAfter": 3461,
      "ca": 3462,
      "oute": 3463,
      "Ġess": 3464,
      ">>": 3465,
      "iol": 3466,
      "Ġstre": 3467,
      "ulate": 3468,
      "Ġwhite": 3469,
      "///": 3470,
      "Ġsearch": 3471,
      "mon": 3472,
      "anger": 3473,
      "Ġaccept": 3474,
      "Return": 3475,
      "Ġalign": 3476,
      "rench": 3477,
      "change": 3478,
      "params": 3479,
      "Ġcommunity": 3480,
      "dat": 3481,
      "Ġreceived": 3482,
      "Ġinvest": 3483,
      "Ġtaken": 3484,
      "ĠAug": 3485,
      ".$": 3486,
      "ams": 3487,
      "Ġhimself": 3488,
      "ĠĠĠĠĠĠĠĠĠĠĠĠĠĠĠĠĠĠĠĠĠĠĠĠĠĠĠĠĠĠĠĠĠĠĠĠĠĠĠ": 3489,
      "stract": 3490,
      "Ġelements": 3491,
      "'),": 3492,
      "Ġwritten": 3493,
      "Listener": 3494,
      "Ġever": 3495,
      "AM": 3496,
      "apan": 3497,
      "Ġextends": 3498,
      "Ġrespons": 3499,
      "mit": 3500,
      "49": 3501,
      "CON": 3502,
      "eline": 3503,
      "etic": 3504,
      "Filter": 3505,
      "Ġformat": 3506,
      "Ġpolic": 3507,
      "Ġbelow": 3508,
      "LI": 3509,
      "border": 3510,
      "ĠCo": 3511,
      "Ġwent": 3512,
      "Ġworking": 3513,
      "Ġwhole": 3514,
      "Ph": 3515,
      "36": 3516,
      "ĠSoc": 3517,
      "URL": 3518,
      "Ġrecent": 3519,
      "ĠGu": 3520,
      "Ġdifficult": 3521,
      "Ġbuilt": 3522,
      "ocol": 3523,
      "Output": 3524,
      "resh": 3525,
      "Row": 3526,
      "Part": 3527,
      "Ġhalf": 3528,
      "Ġblack": 3529,
      "ality": 3530,
      "property": 3531,
      "Ġneeds": 3532,
      "NO": 3533,
      "rew": 3534,
      "iding": 3535,
      "IZ": 3536,
      "Ġlower": 3537,
      "ĠFe": 3538,
      "Ġmer": 3539,
      "Ġreturned": 3540,
      "Select": 3541,
      "det": 3542,
      "ellow": 3543,
      "Ġimm": 3544,
      "leep": 3545,
      "Ġlive": 3546,
      "break": 3547,
      "aries": 3548,
      "ĠThat": 3549,
      "ights": 3550,
      "Ġens": 3551,
      "Valid": 3552,
      "ORT": 3553,
      "ana": 3554,
      "ĠNOT": 3555,
      "ĠSome": 3556,
      "structor": 3557,
      "Ġupdate": 3558,
      "Ġsignificant": 3559,
      "ha": 3560,
      "Ġpublished": 3561,
      "Ġimplement": 3562,
      "center": 3563,
      "ĠSo": 3564,
      "ĠNov": 3565,
      "olve": 3566,
      "Ġscient": 3567,
      "process": 3568,
      "ERT": 3569,
      "ÑĢ": 3570,
      "Width": 3571,
      "TP": 3572,
      "ened": 3573,
      "ĠVal": 3574,
      "erved": 3575,
      "Ġneg": 3576,
      "ama": 3577,
      "Ġroot": 3578,
      "Ġinf": 3579,
      "Ġnational": 3580,
      "Ġfiles": 3581,
      "irection": 3582,
      "inner": 3583,
      "ges": 3584,
      "Ġstory": 3585,
      "Ġadded": 3586,
      "oose": 3587,
      "pecially": 3588,
      "Style": 3589,
      "lip": 3590,
      "ĠHREF": 3591,
      "Ġrather": 3592,
      "yd": 3593,
      "Ġincluded": 3594,
      "Ġmor": 3595,
      "Ġfocus": 3596,
      "ĠAustral": 3597,
      "ĠRed": 3598,
      "display": 3599,
      "clus": 3600,
      "Cache": 3601,
      "Ġtrack": 3602,
      "da": 3603,
      "sembly": 3604,
      "Ġtreatment": 3605,
      "ty": 3606,
      "Ġaff": 3607,
      "Ext": 3608,
      "Ġtree": 3609,
      "UI": 3610,
      "Ġeducation": 3611,
      "Ġground": 3612,
      "ĠNot": 3613,
      "ĠBo": 3614,
      "curity": 3615,
      "Ġusually": 3616,
      "Ġface": 3617,
      "ÃŃ": 3618,
      "Ġstop": 3619,
      "Ġsepar": 3620,
      "Ġmodule": 3621,
      "ĠChar": 3622,
      "04": 3623,
      "Ġnav": 3624,
      "Ġoffset": 3625,
      "Ġbuilding": 3626,
      "OD": 3627,
      "offset": 3628,
      "Ġserver": 3629,
      "Collection": 3630,
      "How": 3631,
      "Ġselect": 3632,
      "ARRAN": 3633,
      "Last": 3634,
      "attle": 3635,
      "apping": 3636,
      "Ġprob": 3637,
      "Ġterms": 3638,
      "Ġitself": 3639,
      "Case": 3640,
      "Ġproblems": 3641,
      "ĠTO": 3642,
      "bind": 3643,
      "Ġcontinue": 3644,
      "Ġfilm": 3645,
      "Ġformer": 3646,
      "oundation": 3647,
      "Ġfloat": 3648,
      "uster": 3649,
      "ctx": 3650,
      "Web": 3651,
      "cs": 3652,
      "acing": 3653,
      "ĠÃ": 3654,
      "Ġquestion": 3655,
      "utils": 3656,
      "Ġjob": 3657,
      "Ġinte": 3658,
      "dep": 3659,
      "Ġansw": 3660,
      "local": 3661,
      "ari": 3662,
      "fully": 3663,
      "Ġ24": 3664,
      "inst": 3665,
      "ENSE": 3666,
      "Ġattack": 3667,
      "Ġcrit": 3668,
      "ĠDis": 3669,
      "yl": 3670,
      "Ġspecified": 3671,
      "ĠPart": 3672,
      "Ġcut": 3673,
      "Ġdefined": 3674,
      "rupt": 3675,
      "show": 3676,
      "Ġhigher": 3677,
      "ITY": 3678,
      "ĠWARRAN": 3679,
      "Ġcases": 3680,
      "window": 3681,
      "][": 3682,
      "03": 3683,
      "<?": 3684,
      "utes": 3685,
      "ĠEar": 3686,
      "}}": 3687,
      "When": 3688,
      "Ġmember": 3689,
      "æľ": 3690,
      "ography": 3691,
      "ĠCLASS": 3692,
      "board": 3693,
      "Ġgroups": 3694,
      "Ġmillion": 3695,
      "po": 3696,
      "Ġwhy": 3697,
      "lies": 3698,
      "Ġstream": 3699,
      "Ġsystems": 3700,
      "aml": 3701,
      "(_": 3702,
      "Ġmakes": 3703,
      "Ġmethods": 3704,
      "Ġregard": 3705,
      "level": 3706,
      "df": 3707,
      "LIC": 3708,
      "Offset": 3709,
      "Ġengine": 3710,
      "Ġdam": 3711,
      "Ġgrad": 3712,
      "imal": 3713,
      "only": 3714,
      "Ġglobal": 3715,
      "COL": 3716,
      "Ġrelations": 3717,
      "First": 3718,
      "Ġcompany": 3719,
      "Ġexperience": 3720,
      "Ġlikely": 3721,
      "Ġmeet": 3722,
      "Ġproduction": 3723,
      "','": 3724,
      "oter": 3725,
      "Ġliter": 3726,
      "Ġsimple": 3727,
      "mselves": 3728,
      "One": 3729,
      "57": 3730,
      "liance": 3731,
      "aid": 3732,
      "Ġlim": 3733,
      "Ġinflu": 3734,
      "Provider": 3735,
      "59": 3736,
      "ivil": 3737,
      "artment": 3738,
      "oz": 3739,
      "Cell": 3740,
      "styles": 3741,
      "Ġcollection": 3742,
      "Ġrecogn": 3743,
      "Ġrelig": 3744,
      "ãĤ": 3745,
      "Ġheld": 3746,
      "omet": 3747,
      "late": 3748,
      "à¸": 3749,
      "where": 3750,
      "ymbol": 3751,
      "Ġinstead": 3752,
      "Ġsong": 3753,
      "ection": 3754,
      "oll": 3755,
      "amily": 3756,
      ":\"": 3757,
      "02": 3758,
      "Ġlevels": 3759,
      "Ġpotential": 3760,
      "Ġfire": 3761,
      "actions": 3762,
      "Ġweek": 3763,
      "istance": 3764,
      "Ġcamp": 3765,
      "ULT": 3766,
      "Ġrender": 3767,
      "drop": 3768,
      "ãĥ": 3769,
      "SD": 3770,
      "float": 3771,
      "Ġ**": 3772,
      "ĠAugust": 3773,
      "adem": 3774,
      "ham": 3775,
      "allet": 3776,
      "Ġdig": 3777,
      "Ġ<=": 3778,
      "ĠInter": 3779,
      "ailed": 3780,
      "ĠMarch": 3781,
      "Ġ$(": 3782,
      "output": 3783,
      "Aut": 3784,
      "ĠDef": 3785,
      "Ġur": 3786,
      "known": 3787,
      "like": 3788,
      "Ob": 3789,
      "åĪ": 3790,
      "just": 3791,
      "äº": 3792,
      "reference": 3793,
      "Ent": 3794,
      "Ġsat": 3795,
      "Entry": 3796,
      "=\"../../../../../": 3797,
      "wise": 3798,
      "Acc": 3799,
      "hel": 3800,
      "MS": 3801,
      "na": 3802,
      "imple": 3803,
      "anged": 3804,
      "ino": 3805,
      "ensed": 3806,
      "ĠHigh": 3807,
      "ĠAPI": 3808,
      "ii": 3809,
      "Ġremove": 3810,
      "ĠOct": 3811,
      "VER": 3812,
      "pril": 3813,
      "Ġbar": 3814,
      "ĠGo": 3815,
      "Ġemploy": 3816,
      "ring": 3817,
      "Ġcells": 3818,
      "()->": 3819,
      "ptember": 3820,
      "dict": 3821,
      "main": 3822,
      "Ġnamed": 3823,
      "ĠCounty": 3824,
      "CODE": 3825,
      "description": 3826,
      "tog": 3827,
      "rypt": 3828,
      "BU": 3829,
      "long": 3830,
      "oding": 3831,
      "Ġclaim": 3832,
      "Ġaddition": 3833,
      "msg": 3834,
      "05": 3835,
      "Pre": 3836,
      "Ġincrease": 3837,
      "should": 3838,
      "xml": 3839,
      "Ġattempt": 3840,
      "parse": 3841,
      "rought": 3842,
      "Url": 3843,
      "Types": 3844,
      "bon": 3845,
      "See": 3846,
      "78": 3847,
      "izing": 3848,
      "Ġ['": 3849,
      "Ġtemper": 3850,
      "ĠAmerica": 3851,
      "Ġparts": 3852,
      "ãĢĤ": 3853,
      "Ġdiscuss": 3854,
      "Ġargs": 3855,
      "....": 3856,
      "Ġvisit": 3857,
      "itude": 3858,
      "ĠRep": 3859,
      "cr": 3860,
      "Ġthemselves": 3861,
      "Rep": 3862,
      "Ġreally": 3863,
      "space": 3864,
      "Ġalbum": 3865,
      "Rem": 3866,
      "hib": 3867,
      "Ġespecially": 3868,
      "Address": 3869,
      "vention": 3870,
      "Det": 3871,
      "rapper": 3872,
      "webkit": 3873,
      "Ġhistor": 3874,
      "Ġintrodu": 3875,
      "Ġprop": 3876,
      "iment": 3877,
      "Ġconsidered": 3878,
      "lying": 3879,
      "199": 3880,
      "tab": 3881,
      "oment": 3882,
      "Ð¾Ð": 3883,
      "ober": 3884,
      "PC": 3885,
      "GL": 3886,
      "Ġcalc": 3887,
      "ĠSer": 3888,
      "Ġsolid": 3889,
      "fort": 3890,
      "Ġsuff": 3891,
      "Ġeff": 3892,
      "ĠRec": 3893,
      "Ġbox": 3894,
      "ĠJapan": 3895,
      "rief": 3896,
      "oto": 3897,
      "ĠVersion": 3898,
      "=\"/": 3899,
      "ĠComp": 3900,
      "tag": 3901,
      "Ġentire": 3902,
      "Ġaccording": 3903,
      "Ġnor": 3904,
      "Ġalmost": 3905,
      "ĠPer": 3906,
      "HECK": 3907,
      "Ġfilter": 3908,
      "Ġimpact": 3909,
      "unt": 3910,
      "Ġestablished": 3911,
      "Button": 3912,
      "ĠEm": 3913,
      "Ġoperation": 3914,
      "Target": 3915,
      "istics": 3916,
      "Controller": 3917,
      "erve": 3918,
      "ĠHT": 3919,
      "Ġcenter": 3920,
      "acc": 3921,
      "Ġep": 3922,
      "Ġadditional": 3923,
      "ournal": 3924,
      "74": 3925,
      "Update": 3926,
      "Ġnormal": 3927,
      "ike": 3928,
      "OF": 3929,
      "./": 3930,
      "utenberg": 3931,
      "Back": 3932,
      "Ġfather": 3933,
      "instance": 3934,
      "common": 3935,
      "vision": 3936,
      "olicy": 3937,
      "31": 3938,
      "Ġnames": 3939,
      "Ag": 3940,
      "mat": 3941,
      "cp": 3942,
      "ensor": 3943,
      "bool": 3944,
      "Ġtechnology": 3945,
      "ĠCor": 3946,
      "ondon": 3947,
      "ĠMe": 3948,
      "Ġlove": 3949,
      "AA": 3950,
      "iers": 3951,
      "Ġcapt": 3952,
      "example": 3953,
      "Ġresources": 3954,
      "ALL": 3955,
      "ĠCity": 3956,
      "UM": 3957,
      "ĠJuly": 3958,
      "Ġknowledge": 3959,
      "ĠArray": 3960,
      "Ġneeded": 3961,
      "UB": 3962,
      "Ġcoll": 3963,
      "Tem": 3964,
      "anced": 3965,
      "ĠDep": 3966,
      "udio": 3967,
      "TIES": 3968,
      "Char": 3969,
      "rip": 3970,
      "sd": 3971,
      "Ã³": 3972,
      "Ġpattern": 3973,
      "Ġmoney": 3974,
      "margin": 3975,
      "Ġactive": 3976,
      "Ġcountries": 3977,
      "born": 3978,
      "Ġtoday": 3979,
      "illed": 3980,
      "ements": 3981,
      "ington": 3982,
      "control": 3983,
      "([": 3984,
      "ĠData": 3985,
      "08": 3986,
      "Ġfund": 3987,
      "ilitary": 3988,
      "returns": 3989,
      "Ġinterface": 3990,
      "ĠJune": 3991,
      "================================": 3992,
      "anel": 3993,
      "Ġquery": 3994,
      "tml": 3995,
      "Ġlocation": 3996,
      "chiev": 3997,
      "Ġmove": 3998,
      "Ġreleased": 3999,
      "ĠJanuary": 4000,
      ".)": 4001,
      "Gr": 4002,
      "arrow": 4003,
      "Ġpassed": 4004,
      "IONS": 4005,
      "Ġinstall": 4006,
      "achine": 4007,
      "Ġaw": 4008,
      "ĠPol": 4009,
      "avel": 4010,
      "Ġled": 4011,
      "root": 4012,
      "Ġmedia": 4013,
      "IND": 4014,
      "Ġcontains": 4015,
      "Ġ{}": 4016,
      "Ġnecessary": 4017,
      "Ġsum": 4018,
      "author": 4019,
      "cem": 4020,
      "è®": 4021,
      "Ġbecom": 4022,
      "aul": 4023,
      "padding": 4024,
      "Ġloss": 4025,
      "ronic": 4026,
      "Ġservices": 4027,
      "Ġlocated": 4028,
      "Ġnight": 4029,
      "ĠType": 4030,
      "ĠFrench": 4031,
      "77": 4032,
      "ulated": 4033,
      "Ġheav": 4034,
      "lands": 4035,
      "NE": 4036,
      "ĠčĊ": 4037,
      "Ġthird": 4038,
      "Ġavoid": 4039,
      "Min": 4040,
      "Ġpoints": 4041,
      "criptor": 4042,
      "older": 4043,
      "amin": 4044,
      "Ġnature": 4045,
      "Ġrate": 4046,
      "NAME": 4047,
      ")(": 4048,
      "ĠRob": 4049,
      "Ġrow": 4050,
      "service": 4051,
      "ĠQu": 4052,
      "Ġsil": 4053,
      "ĠUp": 4054,
      "Ġhttps": 4055,
      "Ġstates": 4056,
      "Ġ(\"": 4057,
      "Ġbig": 4058,
      "ĠSeptember": 4059,
      "Ġentry": 4060,
      "encies": 4061,
      "Spec": 4062,
      "ĠMy": 4063,
      "orse": 4064,
      "Sp": 4065,
      "document": 4066,
      "unity": 4067,
      "grad": 4068,
      "Ġfootball": 4069,
      ".'": 4070,
      "Ġinit": 4071,
      "Ġfilename": 4072,
      "Ġeffort": 4073,
      "chan": 4074,
      "uel": 4075,
      "ĠÂ": 4076,
      "Process": 4077,
      "Bundle": 4078,
      "Ġvariable": 4079,
      "Ġparticip": 4080,
      "Ġprinc": 4081,
      "Ab": 4082,
      "DD": 4083,
      "Max": 4084,
      "overn": 4085,
      "Ñģ": 4086,
      "Ġcompet": 4087,
      "Ġ2007": 4088,
      "Ġson": 4089,
      "important": 4090,
      "hover": 4091,
      "Ġofficial": 4092,
      "fs": 4093,
      "Ġder": 4094,
      "ĠApril": 4095,
      "Ġquick": 4096,
      "icensed": 4097,
      "Ġapplication": 4098,
      "spec": 4099,
      "pond": 4100,
      "Ġcorrect": 4101,
      "Utils": 4102,
      "Ġsun": 4103,
      "VAL": 4104,
      "Ġindu": 4105,
      "Que": 4106,
      "ĠFile": 4107,
      "XX": 4108,
      "ĠEngland": 4109,
      "ĠĠĠĠĠĠĊ": 4110,
      "bor": 4111,
      "Per": 4112,
      "ĠWeb": 4113,
      "amic": 4114,
      "Can": 4115,
      "sv": 4116,
      "Ġobtain": 4117,
      "Ġche": 4118,
      "aste": 4119,
      "Ġcross": 4120,
      "Vis": 4121,
      "Ġfrequ": 4122,
      "Height": 4123,
      "entry": 4124,
      "OS": 4125,
      "dec": 4126,
      "ĠWIT": 4127,
      "ĠRem": 4128,
      "edia": 4129,
      "IZE": 4130,
      "hood": 4131,
      "EQ": 4132,
      "vas": 4133,
      "Ġprofession": 4134,
      "Ġvirtual": 4135,
      "Ġdeveloped": 4136,
      "Ġmass": 4137,
      "ening": 4138,
      "ĠAcc": 4139,
      "After": 4140,
      "'],": 4141,
      "Ġsy": 4142,
      "Ġinternal": 4143,
      "Ġpolitical": 4144,
      "Open": 4145,
      "ables": 4146,
      "Ġbuffer": 4147,
      "ĠDav": 4148,
      "het": 4149,
      "Ġtim": 4150,
      "Ġthing": 4151,
      "ĠĠĠĠĠĠĠĠĠĠĠĠĠĠĠĠĠĠĠĠ": 4152,
      "ĠEast": 4153,
      "---": 4154,
      "ĠWARRANTIES": 4155,
      "iqu": 4156,
      "Ġforce": 4157,
      "Ġfish": 4158,
      "ĠPe": 4159,
      "ctor": 4160,
      "\",\"": 4161,
      "Ġcancer": 4162,
      "Ġbrain": 4163,
      "eds": 4164,
      "ĠII": 4165,
      "exec": 4166,
      "ĠBar": 4167,
      "ĠMc": 4168,
      "Ġways": 4169,
      "proto": 4170,
      "cember": 4171,
      "had": 4172,
      "airs": 4173,
      "Ġ2011": 4174,
      "ta": 4175,
      "Ġsurface": 4176,
      "support": 4177,
      "Container": 4178,
      "ĠSm": 4179,
      "Ġpopular": 4180,
      "column": 4181,
      "ĠOctober": 4182,
      "template": 4183,
      "Ġstarted": 4184,
      "Ġeffects": 4185,
      "Load": 4186,
      "cd": 4187,
      "AV": 4188,
      "Ġnothing": 4189,
      "Ġmot": 4190,
      "android": 4191,
      "asc": 4192,
      "Ġvill": 4193,
      "Ġobjects": 4194,
      "Ġstructure": 4195,
      ">,": 4196,
      "icles": 4197,
      "ĠMon": 4198,
      "utions": 4199,
      "inn": 4200,
      "ership": 4201,
      "Ġclean": 4202,
      "Ġexception": 4203,
      "ĠApache": 4204,
      "Mode": 4205,
      "Header": 4206,
      "otal": 4207,
      "irit": 4208,
      "89": 4209,
      "ĠAND": 4210,
      "OM": 4211,
      "ĠID": 4212,
      "\\\\": 4213,
      "Ġfig": 4214,
      "Ġ2006": 4215,
      "Ġmode": 4216,
      "Ġcondition": 4217,
      "Ġdoc": 4218,
      "unic": 4219,
      "Ġproduced": 4220,
      "enced": 4221,
      "`,": 4222,
      "Ġproducts": 4223,
      "ĠReturns": 4224,
      "Ġmarket": 4225,
      "Ġ2010": 4226,
      "Ġactually": 4227,
      "Ġproperties": 4228,
      "oriz": 4229,
      "Pack": 4230,
      "Tag": 4231,
      "cel": 4232,
      "Op": 4233,
      "ĠStr": 4234,
      "bb": 4235,
      "stylesheet": 4236,
      "hent": 4237,
      "Mem": 4238,
      "ĠCreate": 4239,
      "Ġimprov": 4240,
      "Ġchem": 4241,
      "KE": 4242,
      "Ġlonger": 4243,
      "task": 4244,
      "byte": 4245,
      "ensions": 4246,
      "Ġrelated": 4247,
      "Ġachiev": 4248,
      "Empty": 4249,
      "Ġsaw": 4250,
      "That": 4251,
      "Var": 4252,
      "Ġmaint": 4253,
      "ĠQue": 4254,
      "CP": 4255,
      "Ġsoon": 4256,
      "Ġreturns": 4257,
      "Ġplayed": 4258,
      "###": 4259,
      "Ġmonths": 4260,
      "cing": 4261,
      "Ġsold": 4262,
      "ille": 4263,
      "Ġsection": 4264,
      "ĠErr": 4265,
      "graph": 4266,
      "Ġmodern": 4267,
      "Ġpaper": 4268,
      "ades": 4269,
      "Ġliving": 4270,
      "PECT": 4271,
      "Entity": 4272,
      "classes": 4273,
      "essages": 4274,
      "ĠTrans": 4275,
      "DB": 4276,
      "urg": 4277,
      "Ġ40": 4278,
      "Ġcomplete": 4279,
      "ĠWilli": 4280,
      "DF": 4281,
      "Ġrev": 4282,
      "åħ": 4283,
      "Ġstudies": 4284,
      "Configuration": 4285,
      "yr": 4286,
      "Ġbre": 4287,
      "ĠRev": 4288,
      "Ġwr": 4289,
      "scope": 4290,
      "lier": 4291,
      "year": 4292,
      "Ġ2012": 4293,
      "Ġplants": 4294,
      "Ġscience": 4295,
      "ĠPres": 4296,
      "ĠLondon": 4297,
      "Ġsou": 4298,
      "Parameter": 4299,
      "egin": 4300,
      "INE": 4301,
      "ias": 4302,
      "ĠNe": 4303,
      "lice": 4304,
      "PRO": 4305,
      "abit": 4306,
      "ĠJew": 4307,
      "Ġphysical": 4308,
      "fet": 4309,
      "Ġinj": 4310,
      "?\"": 4311,
      "58": 4312,
      "ĠDate": 4313,
      "ensive": 4314,
      "Ġcomplex": 4315,
      ",'": 4316,
      "Work": 4317,
      "AME": 4318,
      "Ġsort": 4319,
      "Ġuses": 4320,
      "Ġrespect": 4321,
      "Access": 4322,
      "Ġmemory": 4323,
      "Ġ::": 4324,
      "42": 4325,
      "Change": 4326,
      "match": 4327,
      "verse": 4328,
      "project": 4329,
      "men": 4330,
      "verage": 4331,
      "queue": 4332,
      "buffer": 4333,
      "Ġge": 4334,
      "ĠHer": 4335,
      "Ġcontain": 4336,
      "{{": 4337,
      "Callback": 4338,
      "62": 4339,
      "Ġlot": 4340,
      "Ġarticle": 4341,
      "atives": 4342,
      "Dev": 4343,
      "\"))": 4344,
      "itter": 4345,
      "astic": 4346,
      "Http": 4347,
      "cache": 4348,
      "exp": 4349,
      "Ġ23": 4350,
      "Layout": 4351,
      "patch": 4352,
      "aling": 4353,
      "ĠĠĠĠĠĠĠĠĠĠĠĠĠĠĠĠĠĠĠĠĠĠĠĠĠĠĠĠĠĠĠĠĠĠĠĠĠĠĠĠĠĠĠ": 4354,
      "Ã¼": 4355,
      "~~": 4356,
      "Range": 4357,
      "ĠRuss": 4358,
      "Ġ2013": 4359,
      "then": 4360,
      "Exec": 4361,
      "kind": 4362,
      "Ġdied": 4363,
      "Ġactivity": 4364,
      "Ġfields": 4365,
      "ĠDE": 4366,
      "aws": 4367,
      "TER": 4368,
      "Ġsample": 4369,
      "Ġdeb": 4370,
      "token": 4371,
      "ĠUse": 4372,
      "Ġagreed": 4373,
      "Ġunsigned": 4374,
      "sa": 4375,
      "ĠAssert": 4376,
      "ĠStud": 4377,
      "Ġq": 4378,
      "ford": 4379,
      "Ġwhose": 4380,
      "mut": 4381,
      "ĠNovember": 4382,
      "ads": 4383,
      "ministr": 4384,
      "ili": 4385,
      "Ġsend": 4386,
      "Mat": 4387,
      "ptoms": 4388,
      "ĠWork": 4389,
      "&#": 4390,
      "Ġproper": 4391,
      "ursor": 4392,
      "Ġdoesn": 4393,
      "Ġthus": 4394,
      "aches": 4395,
      "Ġpoor": 4396,
      "Ġ;": 4397,
      "Ġ21": 4398,
      "Ġevidence": 4399,
      "Ġarguments": 4400,
      "Write": 4401,
      "63": 4402,
      "ĠHar": 4403,
      "Ġchall": 4404,
      "Ġprotect": 4405,
      "eft": 4406,
      "ban": 4407,
      "iforn": 4408,
      "Ġfriend": 4409,
      "Ġactivities": 4410,
      "IB": 4411,
      "uper": 4412,
      "sign": 4413,
      "ĠPark": 4414,
      "${": 4415,
      "radius": 4416,
      "Ġdeep": 4417,
      "Ġ...": 4418,
      "Ġfeature": 4419,
      "Ġ2008": 4420,
      "Settings": 4421,
      "join": 4422,
      "Ġcomes": 4423,
      "Ġcomponent": 4424,
      "IGN": 4425,
      "Ġstore": 4426,
      "Ġlost": 4427,
      "Ġregular": 4428,
      "Ġweight": 4429,
      "stry": 4430,
      "aker": 4431,
      "61": 4432,
      "resource": 4433,
      "panel": 4434,
      "Ø§": 4435,
      "Ġmatter": 4436,
      "Ġmultiple": 4437,
      "Ġissues": 4438,
      "Tree": 4439,
      "=\"-": 4440,
      "Ġvideo": 4441,
      "bruary": 4442,
      "None": 4443,
      "Ġrecomm": 4444,
      "Ġdepend": 4445,
      "COLOR": 4446,
      "ounter": 4447,
      "____": 4448,
      "ĠCheck": 4449,
      "Ġconduct": 4450,
      "Ġincludes": 4451,
      "Ġidea": 4452,
      "å®": 4453,
      "Ġundefined": 4454,
      "ĠDecember": 4455,
      "foo": 4456,
      "ĠChurch": 4457,
      "Ġreading": 4458,
      "Ġround": 4459,
      "alle": 4460,
      "Ġsense": 4461,
      "Ġprovides": 4462,
      "pri": 4463,
      "Ġconnection": 4464,
      "inate": 4465,
      "07": 4466,
      "Next": 4467,
      "Properties": 4468,
      "Ġhandle": 4469,
      "Thread": 4470,
      "ocr": 4471,
      "API": 4472,
      "Ġdistr": 4473,
      "ERROR": 4474,
      "Ġnorth": 4475,
      "success": 4476,
      "Ġpatients": 4477,
      "ĠChristian": 4478,
      "background": 4479,
      "ĠGeneral": 4480,
      "Ġshows": 4481,
      "Ġecho": 4482,
      "dated": 4483,
      "Document": 4484,
      "Position": 4485,
      "clear": 4486,
      "typ": 4487,
      "Ġmount": 4488,
      "Ġstandard": 4489,
      "Ġtele": 4490,
      "olume": 4491,
      "06": 4492,
      "istribut": 4493,
      "ifornia": 4494,
      "Ã¤": 4495,
      "izes": 4496,
      "Ġoutside": 4497,
      "Interface": 4498,
      "09": 4499,
      "RL": 4500,
      "Americ": 4501,
      "çĶ": 4502,
      "Ġparams": 4503,
      "MO": 4504,
      "render": 4505,
      "fn": 4506,
      "Frame": 4507,
      "Top": 4508,
      "iting": 4509,
      "duc": 4510,
      "Ġprogress": 4511,
      "DL": 4512,
      "pop": 4513,
      "Ġalt": 4514,
      "ĉĉĊ": 4515,
      "Br": 4516,
      "ĠEXPECT": 4517,
      "alled": 4518,
      "images": 4519,
      "Ġ28": 4520,
      "weight": 4521,
      "ĠUs": 4522,
      "Ġtaking": 4523,
      "Ġdog": 4524,
      "Ġpractice": 4525,
      "ĠĠĠĠĠĠĠĠĠĠĠĠĠĠĠĠĠĠĠĠĠĠĠĠĠ": 4526,
      "olute": 4527,
      "ĠArt": 4528,
      "issing": 4529,
      "Ġ2009": 4530,
      "Module": 4531,
      "Ġcop": 4532,
      "ĠAc": 4533,
      "Ġquality": 4534,
      "Ġcompan": 4535,
      "small": 4536,
      "Ġwait": 4537,
      "ĠDi": 4538,
      "Ġregister": 4539,
      "Ġchanged": 4540,
      "ims": 4541,
      "Ġweb": 4542,
      "ĠPhil": 4543,
      "ico": 4544,
      "Ġfailed": 4545,
      "conf": 4546,
      "ipe": 4547,
      "QL": 4548,
      "ĠGerman": 4549,
      "Ġdevice": 4550,
      "delete": 4551,
      "Ġhon": 4552,
      "ala": 4553,
      "azon": 4554,
      "ĠMich": 4555,
      "Option": 4556,
      "Ġtalk": 4557,
      "Ġclos": 4558,
      "54": 4559,
      "ĠMus": 4560,
      "unch": 4561,
      "ĠSk": 4562,
      "Ġschools": 4563,
      "ĠHealth": 4564,
      "tim": 4565,
      "Ġlib": 4566,
      "Ġreference": 4567,
      "Ġspr": 4568,
      "pat": 4569,
      "itory": 4570,
      "haps": 4571,
      "Ġtraining": 4572,
      "Ġetc": 4573,
      "Ġrock": 4574,
      "Ġreduce": 4575,
      "evelop": 4576,
      "Ġmaterials": 4577,
      "ĠIndia": 4578,
      "Ġprior": 4579,
      "Ġfav": 4580,
      "ĠFoundation": 4581,
      "hr": 4582,
      "Ġtax": 4583,
      "Location": 4584,
      "ouncil": 4585,
      "Ġdiscover": 4586,
      "Level": 4587,
      "Ġthroughout": 4588,
      "ampion": 4589,
      "Ġwhom": 4590,
      "Store": 4591,
      "urity": 4592,
      "Font": 4593,
      "Ġscale": 4594,
      "req": 4595,
      "lete": 4596,
      "Script": 4597,
      "Ġwebs": 4598,
      "Ġoil": 4599,
      "Ġgreen": 4600,
      "Port": 4601,
      "Do": 4602,
      "focus": 4603,
      "Ġempty": 4604,
      "ming": 4605,
      "ä½": 4606,
      "plete": 4607,
      "Ġshown": 4608,
      "rial": 4609,
      "Ġborn": 4610,
      "transform": 4611,
      "Ġactual": 4612,
      "Ġ('": 4613,
      "IF": 4614,
      "Ġstation": 4615,
      "Ġrelationship": 4616,
      "Ġrg": 4617,
      "Ġincreased": 4618,
      "ĠLa": 4619,
      "Ġbring": 4620,
      "env": 4621,
      "Ġ2014": 4622,
      "Ġviol": 4623,
      "tree": 4624,
      "Ġsomet": 4625,
      "room": 4626,
      "Ġimmedi": 4627,
      "elling": 4628,
      "Json": 4629,
      "widget": 4630,
      "ulations": 4631,
      "ĠIndian": 4632,
      "Project": 4633,
      "Ġprec": 4634,
      "Ġeyes": 4635,
      "CTION": 4636,
      "WA": 4637,
      "Ġcred": 4638,
      "ald": 4639,
      "Ġopport": 4640,
      "(:": 4641,
      "Ġbehavior": 4642,
      "based": 4643,
      "Hash": 4644,
      "asons": 4645,
      "quires": 4646,
      "PRE": 4647,
      "cret": 4648,
      "mar": 4649,
      "ĠException": 4650,
      "Ġcareer": 4651,
      "iginal": 4652,
      "Ġlicense": 4653,
      "Bl": 4654,
      "Ġsett": 4655,
      "obile": 4656,
      "IconError": 4657,
      "Ġign": 4658,
      "arily": 4659,
      "Operation": 4660,
      "Ġwest": 4661,
      "ĠRef": 4662,
      "ij": 4663,
      "Ġ2015": 4664,
      "ycle": 4665,
      "Ġsens": 4666,
      "Pe": 4667,
      "ĠAg": 4668,
      "ĠĠĠĠĠĠĠĠĠĠĠĠĠĠĠĠĠĠ": 4669,
      "Ġgir": 4670,
      "Ġfem": 4671,
      "pha": 4672,
      "IconErrorEncoded": 4673,
      "click": 4674,
      "stitute": 4675,
      "aching": 4676,
      "Current": 4677,
      "Ġvert": 4678,
      "ĠGre": 4679,
      "Ġ255": 4680,
      "vey": 4681,
      "Ġsn": 4682,
      "ĠCalifornia": 4683,
      "Ġmother": 4684,
      "after": 4685,
      "43": 4686,
      "Ġtherefore": 4687,
      "Ġforms": 4688,
      "which": 4689,
      "Ġbad": 4690,
      "Ġroom": 4691,
      "Ġgrowth": 4692,
      "Ġissue": 4693,
      "ria": 4694,
      "Unit": 4695,
      "Ġcopyright": 4696,
      "ĠLog": 4697,
      "Ġbrought": 4698,
      "Ġconcept": 4699,
      "empty": 4700,
      "Ġpolicy": 4701,
      "Ġsing": 4702,
      "HOUT": 4703,
      "Ġcontribut": 4704,
      "ĠHouse": 4705,
      "ĠST": 4706,
      "quence": 4707,
      "modal": 4708,
      "files": 4709,
      "Ġconn": 4710,
      "ael": 4711,
      "apped": 4712,
      "Order": 4713,
      "Ġhours": 4714,
      "Ġbelieve": 4715,
      "86": 4716,
      "icate": 4717,
      "Ġten": 4718,
      "Ġking": 4719,
      "åĲ": 4720,
      "Ġ*)": 4721,
      "Ġpersonal": 4722,
      "tm": 4723,
      "License": 4724,
      "Ġcontr": 4725,
      "Ġ})": 4726,
      "thon": 4727,
      "Ġhands": 4728,
      "ATION": 4729,
      "ores": 4730,
      "Ġprep": 4731,
      "Ġfeatures": 4732,
      "Ġtemplate": 4733,
      "Ġfront": 4734,
      "Ġstudent": 4735,
      "Ġsouth": 4736,
      "Ġtransform": 4737,
      "Ġhom": 4738,
      "Ġconsist": 4739,
      "ĠRE": 4740,
      "entity": 4741,
      "ference": 4742,
      "Ġproduce": 4743,
      "Dec": 4744,
      "Ġvia": 4745,
      "iences": 4746,
      "Ġparse": 4747,
      "rome": 4748,
      "Ġplayer": 4749,
      "Ġmanagement": 4750,
      "Ġdrug": 4751,
      "MMMMMMMM": 4752,
      "Ġrunning": 4753,
      "Ġinternational": 4754,
      "ĠPre": 4755,
      "debug": 4756,
      "Ġmoment": 4757,
      "osis": 4758,
      "Ġquestions": 4759,
      "Ġbound": 4760,
      "gs": 4761,
      "layout": 4762,
      "toggle": 4763,
      "orge": 4764,
      "sych": 4765,
      "member": 4766,
      "79": 4767,
      "Ġsoil": 4768,
      "respond": 4769,
      "Ġconcern": 4770,
      "lit": 4771,
      "ula": 4772,
      "Ġcontact": 4773,
      "hash": 4774,
      "Ġtold": 4775,
      "Ġgreater": 4776,
      "Ġsound": 4777,
      "ĠFebruary": 4778,
      "Ġsqu": 4779,
      "ĠCO": 4780,
      "ĠCr": 4781,
      "make": 4782,
      "Ġearth": 4783,
      "Co": 4784,
      "Ġsometimes": 4785,
      "media": 4786,
      "ĠFirst": 4787,
      "Ġeasy": 4788,
      "road": 4789,
      "footer": 4790,
      "tool": 4791,
      "ATA": 4792,
      "Ġability": 4793,
      "Ġallowed": 4794,
      "ĠMath": 4795,
      "Ġnut": 4796,
      "Ġsymptoms": 4797,
      "ederal": 4798,
      "disabled": 4799,
      "licenses": 4800,
      "CS": 4801,
      "Ġfight": 4802,
      "Handle": 4803,
      "Ġmeasure": 4804,
      "ĠRiver": 4805,
      "Ġmeaning": 4806,
      "Ġstat": 4807,
      "GE": 4808,
      "Ġparameter": 4809,
      "gment": 4810,
      "docs": 4811,
      "Ġcompliance": 4812,
      "models": 4813,
      "Ġband": 4814,
      "Ġapplicable": 4815,
      "icons": 4816,
      "Ġvir": 4817,
      "Ġcast": 4818,
      "PR": 4819,
      "ĠSoftware": 4820,
      "greg": 4821,
      "cribe": 4822,
      "Ġwin": 4823,
      "oe": 4824,
      "Ġprimary": 4825,
      "Ġensure": 4826,
      "replace": 4827,
      "Ġful": 4828,
      "NavBar": 4829,
      "aled": 4830,
      "ara": 4831,
      "Ġ22": 4832,
      "Ġtests": 4833,
      "ĠWhile": 4834,
      "'re": 4835,
      "OK": 4836,
      "Ġestablish": 4837,
      "Ġdistrict": 4838,
      "ĉĠĠĠĠĠ": 4839,
      "Ġlines": 4840,
      "è¯": 4841,
      "Ġmedical": 4842,
      "Ġgave": 4843,
      "Ġmilitary": 4844,
      "Ġnotice": 4845,
      "Ġwild": 4846,
      "send": 4847,
      "soft": 4848,
      "unit": 4849,
      "Ġtag": 4850,
      "prove": 4851,
      "inding": 4852,
      "ica": 4853,
      "Ġparents": 4854,
      "_;": 4855,
      "ĠGutenberg": 4856,
      "alls": 4857,
      "NS": 4858,
      "Eng": 4859,
      "Ġslow": 4860,
      "Tim": 4861,
      "iant": 4862,
      "Ġste": 4863,
      "Ġnov": 4864,
      "46": 4865,
      "bin": 4866,
      "52": 4867,
      "Ġdirectly": 4868,
      "=\"../../../../../../": 4869,
      "imately": 4870,
      "Ġ(*": 4871,
      "Ġonline": 4872,
      "ipal": 4873,
      "Ġalthough": 4874,
      "undred": 4875,
      "Ġimplied": 4876,
      "(@": 4877,
      "41": 4878,
      "ĠArch": 4879,
      "Ġfeed": 4880,
      "here": 4881,
      "ĠKIND": 4882,
      "Search": 4883,
      "cons": 4884,
      "Ġscope": 4885,
      "Ġnumer": 4886,
      "DIT": 4887,
      "Ġfunctions": 4888,
      "ua": 4889,
      "ĠFrance": 4890,
      "Ġoverride": 4891,
      "Ġpermissions": 4892,
      "Ġprobably": 4893,
      "ufact": 4894,
      "ĠTime": 4895,
      "Ġ2005": 4896,
      "Ġparameters": 4897,
      "gate": 4898,
      "ontal": 4899,
      "ĠWITHOUT": 4900,
      "address": 4901,
      "DC": 4902,
      "Ġscreen": 4903,
      "Pass": 4904,
      "anks": 4905,
      "Ġ2000": 4906,
      "Description": 4907,
      "Fe": 4908,
      "ĠMod": 4909,
      "Ġsave": 4910,
      "ĠInternational": 4911,
      "Ġskills": 4912,
      "Ġmovement": 4913,
      "Ġinfo": 4914,
      "toString": 4915,
      "Ġrule": 4916,
      "Ptr": 4917,
      "anges": 4918,
      "Ġreview": 4919,
      "vents": 4920,
      "ĠNor": 4921,
      "printf": 4922,
      "Inst": 4923,
      "Ġindepend": 4924,
      "ĠassertEquals": 4925,
      "Ġer": 4926,
      "Ġ27": 4927,
      "oring": 4928,
      "51": 4929,
      "Ġitems": 4930,
      "Ġperformance": 4931,
      "Ġfeet": 4932,
      "Ġconsum": 4933,
      "URE": 4934,
      "ponents": 4935,
      "dropdown": 4936,
      "Ġtakes": 4937,
      "wner": 4938,
      "Control": 4939,
      "Ġeast": 4940,
      "(*": 4941,
      "useum": 4942,
      "Ġcaused": 4943,
      "Ġcompos": 4944,
      "Ã¶": 4945,
      "():": 4946,
      "ĠThen": 4947,
      "mm": 4948,
      "notation": 4949,
      "Ġcache": 4950,
      "Invalid": 4951,
      "Ġskin": 4952,
      "fficient": 4953,
      "American": 4954,
      "Ġswitch": 4955,
      "exports": 4956,
      "Ġdescribed": 4957,
      "Use": 4958,
      "Ġexerc": 4959,
      "layer": 4960,
      "Impl": 4961,
      "Ġmonth": 4962,
      "Ġelem": 4963,
      "boot": 4964,
      "Ġmicro": 4965,
      "ategy": 4966,
      "LICENSE": 4967,
      "ĠFrom": 4968,
      "è¿": 4969,
      "vm": 4970,
      "Ġwood": 4971,
      "æĸ": 4972,
      "ĠLeague": 4973,
      "Ġscript": 4974,
      "False": 4975,
      "Ġeffective": 4976,
      "ictionary": 4977,
      "Ġreported": 4978,
      "bes": 4979,
      "ociation": 4980,
      "Ġos": 4981,
      "ĠCanada": 4982,
      "Ġsleep": 4983,
      "Ġcurrently": 4984,
      "cut": 4985,
      "Ġsources": 4986,
      "Ġquite": 4987,
      "Ġoccur": 4988,
      "ĠĠĠĠĠĠĠĠĠĠĠĠĠĠĠĠĊ": 4989,
      ";<": 4990,
      "Ġ2016": 4991,
      "Ġinside": 4992,
      "rote": 4993,
      "ancy": 4994,
      "acters": 4995,
      "FAULT": 4996,
      "ani": 4997,
      "coll": 4998,
      "Ġsche": 4999,
      "Ġaverage": 5000,
      "ĠSch": 5001,
      "strap": 5002,
      "56": 5003,
      "Ġdelete": 5004,
      "dest": 5005,
      "ĠRoman": 5006,
      "ixt": 5007,
      "Ġcomputer": 5008,
      "Ġ1999": 5009,
      "Ġmis": 5010,
      "Ġgames": 5011,
      "shadow": 5012,
      "Render": 5013,
      "Ġdesigned": 5014,
      "Ġessential": 5015,
      "Ġdirectory": 5016,
      "Ġanalysis": 5017,
      "Ġunit": 5018,
      "AND": 5019,
      "inct": 5020,
      "ĠSub": 5021,
      "Ġattr": 5022,
      "Ġconnect": 5023,
      "53": 5024,
      "ĠResearch": 5025,
      "Sec": 5026,
      "Ġir": 5027,
      "Left": 5028,
      "Ġgas": 5029,
      "inated": 5030,
      "cpp": 5031,
      "ĠInc": 5032,
      "Ġsimply": 5033,
      "la": 5034,
      "ram": 5035,
      "ncy": 5036,
      "Ġattribute": 5037,
      "ĠCons": 5038,
      "handle": 5039,
      "double": 5040,
      "ĠDon": 5041,
      "Ġmoved": 5042,
      "âĢ¦": 5043,
      "aily": 5044,
      "Ġautom": 5045,
      "Ġunique": 5046,
      "ĠIr": 5047,
      "Names": 5048,
      "Ġinline": 5049,
      "Ġsurv": 5050,
      "Am": 5051,
      "itting": 5052,
      "Ġargument": 5053,
      "estamp": 5054,
      "Ġ{'": 5055,
      "ped": 5056,
      "87": 5057,
      "Ġclub": 5058,
      "Ġapproach": 5059,
      "itable": 5060,
      "Ġreceive": 5061,
      "Ġemer": 5062,
      "ĠPat": 5063,
      "CI": 5064,
      "Ġsociety": 5065,
      "ĠSan": 5066,
      "auth": 5067,
      "Ġtool": 5068,
      "ĠEl": 5069,
      "claim": 5070,
      "irectory": 5071,
      "PA": 5072,
      "Ġunderstanding": 5073,
      "Obj": 5074,
      "ĠAnt": 5075,
      "Ġbeaut": 5076,
      "Ġraise": 5077,
      "ILITY": 5078,
      "Ġbooks": 5079,
      "ĠCollege": 5080,
      "more": 5081,
      "Ġeval": 5082,
      "Ġlimitations": 5083,
      "Async": 5084,
      "Ġserved": 5085,
      "Ġanimals": 5086,
      "Ġrgba": 5087,
      "DER": 5088,
      "device": 5089,
      "Ġasked": 5090,
      "Ġut": 5091,
      "Ġnumbers": 5092,
      "Ġextra": 5093,
      "help": 5094,
      "apse": 5095,
      "Ġselected": 5096,
      "illing": 5097,
      "Ġwalk": 5098,
      "Ġdark": 5099,
      "Ġvict": 5100,
      "æĺ": 5101,
      "reek": 5102,
      "tn": 5103,
      "Ġexisting": 5104,
      "Ġindustry": 5105,
      "Ġsea": 5106,
      "values": 5107,
      "Ġcit": 5108,
      "ĠĠĠĠĠĠĠĠĠĠĠĠĠĠĠĠĠĠĠĠĠĠ": 5109,
      "ĠEuropean": 5110,
      "itect": 5111,
      "Ġwoman": 5112,
      "Ġtoken": 5113,
      "ACK": 5114,
      "Ġstreng": 5115,
      "EM": 5116,
      "fields": 5117,
      "Ġgenerally": 5118,
      "mode": 5119,
      "Ġdiet": 5120,
      "Ġnative": 5121,
      "ĠPort": 5122,
      "ĠPublic": 5123,
      "Ġnamespace": 5124,
      "ĠEarth": 5125,
      "Ġinfe": 5126,
      "Ġeconomic": 5127,
      "century": 5128,
      "Ġbehind": 5129,
      "ĠBG": 5130,
      "ooks": 5131,
      "Ġrot": 5132,
      "Ġphot": 5133,
      "Ġagre": 5134,
      "Ġjud": 5135,
      "uge": 5136,
      "quired": 5137,
      "ining": 5138,
      "plicit": 5139,
      "ĉĠĠĠĠĠĠĠ": 5140,
      "addr": 5141,
      "Ġleading": 5142,
      "erg": 5143,
      "Ġhash": 5144,
      "Ġsus": 5145,
      "Ġrelease": 5146,
      "__(": 5147,
      "ĠCour": 5148,
      "----------------------------------------------------------------": 5149,
      "Ġfollowed": 5150,
      "Ġspread": 5151,
      "Ġinvolved": 5152,
      "Ġhot": 5153,
      "Ġ++": 5154,
      "free": 5155,
      "ĠGovern": 5156,
      "Local": 5157,
      "uz": 5158,
      "Ġgold": 5159,
      "ĠLO": 5160,
      "ros": 5161,
      "FO": 5162,
      "Ġadult": 5163,
      "scale": 5164,
      "Ġrelative": 5165,
      "omb": 5166,
      "callback": 5167,
      "icker": 5168,
      "ĠMat": 5169,
      "ios": 5170,
      "coq": 5171,
      "ĠOut": 5172,
      "Ġdead": 5173,
      "Ġanswer": 5174,
      "Ġlo": 5175,
      "ĠService": 5176,
      "Mon": 5177,
      "Ġbroad": 5178,
      "ds": 5179,
      "Ġbottom": 5180,
      "vector": 5181,
      "lg": 5182,
      "SET": 5183,
      "iece": 5184,
      "Ġcontainer": 5185,
      "Ġanything": 5186,
      "Ġmid": 5187,
      "Connection": 5188,
      "Ġgoverning": 5189,
      "aved": 5190,
      "Ġwor": 5191,
      "term": 5192,
      "icture": 5193,
      "Ġthread": 5194,
      "Ġjav": 5195,
      "ĠLord": 5196,
      "uous": 5197,
      "Ġbird": 5198,
      "essor": 5199,
      "Dir": 5200,
      "Ġdoing": 5201,
      "ĠSec": 5202,
      "Ġlives": 5203,
      "Ġconvert": 5204,
      "Ġchurch": 5205,
      "orizontal": 5206,
      "Ġallows": 5207,
      "Ġmiddle": 5208,
      "ĠRead": 5209,
      "Ġremoved": 5210,
      "Ġbeginning": 5211,
      "Ġpressure": 5212,
      "Ġgraph": 5213,
      "000000": 5214,
      "Ġextrem": 5215,
      "Ġcontinued": 5216,
      "account": 5217,
      "Ġexecut": 5218,
      "Ġdescription": 5219,
      "prop": 5220,
      "85": 5221,
      "Match": 5222,
      "=\"_": 5223,
      "uate": 5224,
      "ĠLicensed": 5225,
      "export": 5226,
      "CR": 5227,
      "Session": 5228,
      "Down": 5229,
      "Ġ60": 5230,
      "Ġiter": 5231,
      "Ġspl": 5232,
      "ĠOpen": 5233,
      "Ġden": 5234,
      "ube": 5235,
      "Ġdestroy": 5236,
      "Num": 5237,
      "hy": 5238,
      "site": 5239,
      "Ġlack": 5240,
      "Ġ2017": 5241,
      "lyph": 5242,
      "ka": 5243,
      "ested": 5244,
      "copy": 5245,
      "zer": 5246,
      "cap": 5247,
      "Success": 5248,
      "Ġtowards": 5249,
      "ĠAir": 5250,
      "$(": 5251,
      "72": 5252,
      "Ġincreasing": 5253,
      "command": 5254,
      "cf": 5255,
      "=\"../../../": 5256,
      "grid": 5257,
      "Ġdetails": 5258,
      "unn": 5259,
      "Ġbal": 5260,
      "ĠPRO": 5261,
      "was": 5262,
      "Ġthous": 5263,
      "Parameters": 5264,
      "Ġtransport": 5265,
      "Ġmag": 5266,
      "Ġbyte": 5267,
      "Helper": 5268,
      "eck": 5269,
      "SO": 5270,
      "ĠCenter": 5271,
      "Ġexpression": 5272,
      "typeof": 5273,
      "Ġcivil": 5274,
      "DING": 5275,
      "Ġclimate": 5276,
      "asion": 5277,
      "Ġdiagn": 5278,
      "HTML": 5279,
      "ĠBGCOLOR": 5280,
      "Ġsex": 5281,
      "Schema": 5282,
      "Ġresearchers": 5283,
      "covery": 5284,
      "imation": 5285,
      "Menu": 5286,
      "ln": 5287,
      "`.": 5288,
      "Ġfarm": 5289,
      "second": 5290,
      "ĠEnd": 5291,
      "ecause": 5292,
      "Ġstress": 5293,
      "Ġshare": 5294,
      "equals": 5295,
      "{}": 5296,
      "Iter": 5297,
      ")))": 5298,
      "Ġthreat": 5299,
      "Integer": 5300,
      "inline": 5301,
      "ĠTrue": 5302,
      "angle": 5303,
      "å¤": 5304,
      "Ġdyn": 5305,
      "æĪ": 5306,
      "Ver": 5307,
      "ashington": 5308,
      "ida": 5309,
      "store": 5310,
      "sect": 5311,
      "oder": 5312,
      "SA": 5313,
      "Ġcauses": 5314,
      "SH": 5315,
      "ĠDavid": 5316,
      "fil": 5317,
      "ĠMark": 5318,
      "Ġstage": 5319,
      "ĠPy": 5320,
      "Ġ%}": 5321,
      "Ġlooking": 5322,
      "Ġheader": 5323,
      "Ġshape": 5324,
      "Ġ29": 5325,
      "Ġ2004": 5326,
      "GET": 5327,
      "Ġhope": 5328,
      "produ": 5329,
      "eff": 5330,
      "++;": 5331,
      "Ġrepl": 5332,
      "system": 5333,
      "assertEqual": 5334,
      "keys": 5335,
      "83": 5336,
      "Record": 5337,
      "ĠJes": 5338,
      "Ġindividuals": 5339,
      "Mult": 5340,
      "Ġframe": 5341,
      "ĠChina": 5342,
      "Ġsupported": 5343,
      "ancial": 5344,
      "Ġfactors": 5345,
      "Ġimprove": 5346,
      "fact": 5347,
      "Ġctx": 5348,
      "Ġdeal": 5349,
      "Ġsettings": 5350,
      "Ġoperations": 5351,
      "gu": 5352,
      "ĠMap": 5353,
      "Ġattention": 5354,
      "Ġbur": 5355,
      "Ġconstant": 5356,
      "Host": 5357,
      "oration": 5358,
      "Ġbasic": 5359,
      "Ġseems": 5360,
      "Vector": 5361,
      "hest": 5362,
      "History": 5363,
      ">();": 5364,
      "Ġaccom": 5365,
      "ĠMet": 5366,
      "Ġaltern": 5367,
      "Ġwebsite": 5368,
      "agment": 5369,
      "atively": 5370,
      "Stack": 5371,
      "Ġcomplet": 5372,
      "well": 5373,
      "?:": 5374,
      "ĠApp": 5375,
      "Ġmut": 5376,
      "Ġvers": 5377,
      "Ġmechan": 5378,
      "Expression": 5379,
      "ĠBAS": 5380,
      "Ġmodels": 5381,
      "uman": 5382,
      "Ġ'/": 5383,
      "ech": 5384,
      "Ġvariety": 5385,
      "isions": 5386,
      "ĠWilliam": 5387,
      "Ġsem": 5388,
      "Ġintegr": 5389,
      "Const": 5390,
      "interface": 5391,
      "Ġculture": 5392,
      "Ġmagn": 5393,
      "Ġheat": 5394,
      "Ġsecurity": 5395,
      "Ġpositive": 5396,
      "Parser": 5397,
      "Ġjo": 5398,
      "romise": 5399,
      "Ġhealthy": 5400,
      "Ġbytes": 5401,
      "Ġdrink": 5402,
      "gricult": 5403,
      "frame": 5404,
      "ĠMore": 5405,
      "ario": 5406,
      "BA": 5407,
      "Doc": 5408,
      "Ġroad": 5409,
      "Ġgetting": 5410,
      "Ġuseful": 5411,
      "Ġassess": 5412,
      "ĠJSON": 5413,
      "istrict": 5414,
      "?âĢĿ": 5415,
      "Boolean": 5416,
      "alloc": 5417,
      "pg": 5418,
      "Ġhar": 5419,
      "Decl": 5420,
      "Ġord": 5421,
      "Ġhundred": 5422,
      "(!": 5423,
      "Ġexc": 5424,
      "Metadata": 5425,
      "Le": 5426,
      "Long": 5427,
      "Ġpurpose": 5428,
      "Ġcompanies": 5429,
      "Ġminutes": 5430,
      "Ġfast": 5431,
      "Ġexam": 5432,
      "%%%%": 5433,
      "ĠName": 5434,
      "Ġsuccessful": 5435,
      "Ġspirit": 5436,
      "84": 5437,
      "Ġtra": 5438,
      "Sk": 5439,
      "ĠAustralia": 5440,
      "Ġdim": 5441,
      "Serial": 5442,
      "Ġrestr": 5443,
      "Args": 5444,
      "Ġchemical": 5445,
      "æķ": 5446,
      "Ġrepe": 5447,
      "Core": 5448,
      "Ge": 5449,
      "''": 5450,
      "Ġsafe": 5451,
      "Ke": 5452,
      "Ġdou": 5453,
      "draw": 5454,
      "ĠBuild": 5455,
      "'d": 5456,
      "Ġdat": 5457,
      "Ġleave": 5458,
      "Ġspeed": 5459,
      "ĠDepartment": 5460,
      "Ġmsg": 5461,
      "ĠOther": 5462,
      "Ġì": 5463,
      "ĠFOR": 5464,
      "mult": 5465,
      "Widget": 5466,
      "etime": 5467,
      "Argument": 5468,
      "Ġinstit": 5469,
      "ĠBlack": 5470,
      "Ġwife": 5471,
      ")]": 5472,
      "My": 5473,
      "Parent": 5474,
      "TEST": 5475,
      "Ġgrant": 5476,
      "Ġformed": 5477,
      "Ġwrote": 5478,
      "force": 5479,
      "merc": 5480,
      "ett": 5481,
      "ĠMiss": 5482,
      "cert": 5483,
      "Ġspeak": 5484,
      "split": 5485,
      "Ġgoal": 5486,
      "Ġstay": 5487,
      "allow": 5488,
      "aur": 5489,
      "ano": 5490,
      "ervation": 5491,
      "arks": 5492,
      "types": 5493,
      "DITIONS": 5494,
      "Ġ32": 5495,
      "sort": 5496,
      "Ġparticularly": 5497,
      "ĠYour": 5498,
      "gor": 5499,
      "olar": 5500,
      "rib": 5501,
      "FFFF": 5502,
      "pite": 5503,
      "asic": 5504,
      "card": 5505,
      "omic": 5506,
      "Ġlibrary": 5507,
      "Sign": 5508,
      "ĠCONDITIONS": 5509,
      "pub": 5510,
      "Ġreli": 5511,
      "IR": 5512,
      "internal": 5513,
      "PL": 5514,
      "ĠBASIS": 5515,
      "ado": 5516,
      "################": 5517,
      "unsigned": 5518,
      "ci": 5519,
      "Ġcharacters": 5520,
      "ĠJames": 5521,
      "Ġprofessional": 5522,
      "!\"": 5523,
      "ilies": 5524,
      "inese": 5525,
      "Print": 5526,
      "izations": 5527,
      "ĠAR": 5528,
      "aven": 5529,
      "onstr": 5530,
      "email": 5531,
      "Ġsession": 5532,
      "Ġplaced": 5533,
      "ifest": 5534,
      "mission": 5535,
      "Ġlarger": 5536,
      "Ġ],": 5537,
      "ĠForm": 5538,
      "76": 5539,
      "Ġdistance": 5540,
      "Ġsal": 5541,
      "eks": 5542,
      "Ġflo": 5543,
      "Ġmanufact": 5544,
      "CA": 5545,
      "admin": 5546,
      "oted": 5547,
      "Ġconfiguration": 5548,
      "car": 5549,
      "Bytes": 5550,
      "omas": 5551,
      "rael": 5552,
      "reet": 5553,
      "alm": 5554,
      "ĠIO": 5555,
      "Ġdetermine": 5556,
      "arts": 5557,
      "ĠHistory": 5558,
      "Ġletter": 5559,
      "Ġdatabase": 5560,
      "Ġsec": 5561,
      "-->": 5562,
      "Dep": 5563,
      "Ġ26": 5564,
      "icrosoft": 5565,
      "Ġotherwise": 5566,
      "ĠCong": 5567,
      "ĠCHECK": 5568,
      "Ġexact": 5569,
      "ago": 5570,
      "win": 5571,
      "Root": 5572,
      "Ġrequires": 5573,
      "73": 5574,
      "Ġax": 5575,
      "Ġprograms": 5576,
      "Ġmention": 5577,
      "ying": 5578,
      "ĠGermany": 5579,
      "Ġbirth": 5580,
      "3333": 5581,
      "Ġreplace": 5582,
      "Ġcollect": 5583,
      "Ġtrees": 5584,
      "Are": 5585,
      "82": 5586,
      "conn": 5587,
      "Ġple": 5588,
      "joy": 5589,
      "SL": 5590,
      "herit": 5591,
      "Ġmo": 5592,
      "aints": 5593,
      "enty": 5594,
      "ĠAfrica": 5595,
      "Ġplaces": 5596,
      "Ġflag": 5597,
      "Ġeasily": 5598,
      "Storage": 5599,
      "Ġremain": 5600,
      "connect": 5601,
      "ternet": 5602,
      "apy": 5603,
      "Ġharm": 5604,
      "THER": 5605,
      "ospital": 5606,
      "Delete": 5607,
      "atur": 5608,
      "andid": 5609,
      "gin": 5610,
      "Ġserious": 5611,
      "ĠEN": 5612,
      "Right": 5613,
      "Ġrout": 5614,
      "ynch": 5615,
      "Ã§": 5616,
      "Ġeat": 5617,
      "cb": 5618,
      "porary": 5619,
      "BR": 5620,
      "95": 5621,
      "Ġfear": 5622,
      "ĠScience": 5623,
      "Ġinn": 5624,
      "Ġeight": 5625,
      "Ġrules": 5626,
      "Ġmale": 5627,
      "'))": 5628,
      "high": 5629,
      "Ġnet": 5630,
      "ĠPaul": 5631,
      "Ġbill": 5632,
      "Ġvillage": 5633,
      "Ġwanted": 5634,
      "impl": 5635,
      "Ġtemperature": 5636,
      "pk": 5637,
      "Ġcard": 5638,
      "gan": 5639,
      "rics": 5640,
      "Ġago": 5641,
      "ugins": 5642,
      "Ġopened": 5643,
      "Ġalone": 5644,
      "ĠInstitute": 5645,
      "iform": 5646,
      "Ġlaws": 5647,
      "mercial": 5648,
      "Ins": 5649,
      "lers": 5650,
      "custom": 5651,
      "Ġheard": 5652,
      "Ġforward": 5653,
      "Ġsymbol": 5654,
      "ito": 5655,
      "Assert": 5656,
      "ĠGroup": 5657,
      "Display": 5658,
      "ĠOf": 5659,
      "Head": 5660,
      "Dom": 5661,
      "ampionship": 5662,
      "thread": 5663,
      "ĠEduc": 5664,
      ">.": 5665,
      "pers": 5666,
      "ĠUnless": 5667,
      "Ð°Ð": 5668,
      "txt": 5669,
      "Ġjson": 5670,
      "items": 5671,
      "Ġdirection": 5672,
      "Ġwide": 5673,
      "Ġtransaction": 5674,
      "IX": 5675,
      "register": 5676,
      "Ġapply": 5677,
      "sum": 5678,
      "Ġappropri": 5679,
      "Ġnp": 5680,
      "Ġsetting": 5681,
      "mail": 5682,
      "Ġwind": 5683,
      "cient": 5684,
      "ĉĠĠĠĠĠĠĠĠĠĠĠ": 5685,
      "Ġforest": 5686,
      "auto": 5687,
      "etes": 5688,
      "hi": 5689,
      "Ġ\"/": 5690,
      "WE": 5691,
      "wood": 5692,
      "ĠGeorge": 5693,
      "Ġdamage": 5694,
      "blockList": 5695,
      "Ġhous": 5696,
      "Each": 5697,
      "lor": 5698,
      "family": 5699,
      "insert": 5700,
      "white": 5701,
      "Prot": 5702,
      "ĠAccording": 5703,
      "ĠMany": 5704,
      "Ġcarry": 5705,
      "ĠTur": 5706,
      "ifying": 5707,
      "itte": 5708,
      "Ġhy": 5709,
      "Ġquickly": 5710,
      "Ġparty": 5711,
      "Ġencour": 5712,
      "ĠMost": 5713,
      "ĠWashington": 5714,
      "CD": 5715,
      "Ġreq": 5716,
      "Ġreve": 5717,
      "mes": 5718,
      "Ġtraditional": 5719,
      "Reader": 5720,
      "boolean": 5721,
      "Ġneigh": 5722,
      "ĠTH": 5723,
      "96": 5724,
      "ya": 5725,
      "Ġpackage": 5726,
      "rd": 5727,
      "itation": 5728,
      "edef": 5729,
      "stack": 5730,
      "aign": 5731,
      "AGE": 5732,
      "Ġ[],": 5733,
      "ĠReact": 5734,
      "ws": 5735,
      "'ll": 5736,
      "Ġmedic": 5737,
      "Ġcomment": 5738,
      "Ġul": 5739,
      "ango": 5740,
      "normal": 5741,
      "Ġconv": 5742,
      "Ġeth": 5743,
      "Ġswe": 5744,
      "equ": 5745,
      "ĠGreat": 5746,
      "Ġnearly": 5747,
      "Ġhtml": 5748,
      "ceived": 5749,
      "agon": 5750,
      "ĠĠĠĠĠĠĠĠĠĠĊ": 5751,
      "Serv": 5752,
      "Ġusers": 5753,
      "Ġcentral": 5754,
      "Ġstrict": 5755,
      "PT": 5756,
      "Descriptor": 5757,
      "(){": 5758,
      "Ġelectric": 5759,
      "ixel": 5760,
      "Ġturned": 5761,
      "Ġinvolv": 5762,
      "Ġnews": 5763,
      "ĠPress": 5764,
      "ellig": 5765,
      "va": 5766,
      "settings": 5767,
      "west": 5768,
      "ĠMac": 5769,
      "ARY": 5770,
      "Mock": 5771,
      "Ġtheory": 5772,
      "Template": 5773,
      "hidden": 5774,
      "xx": 5775,
      "cmd": 5776,
      "'.": 5777,
      "Tool": 5778,
      "Ġimages": 5779,
      "framework": 5780,
      "atin": 5781,
      "Ġfriends": 5782,
      "ĉĠĠ": 5783,
      "END": 5784,
      "Ġbacter": 5785,
      "none": 5786,
      "aughter": 5787,
      "exception": 5788,
      "Ġenter": 5789,
      "ä¸Ģ": 5790,
      "Ġreligious": 5791,
      "ĠHTML": 5792,
      "Red": 5793,
      "jquery": 5794,
      "etch": 5795,
      "oting": 5796,
      "Ġcompleted": 5797,
      "Ġglass": 5798,
      "raz": 5799,
      "Ġconstit": 5800,
      "Ġrap": 5801,
      "Ġlimited": 5802,
      "CLU": 5803,
      "Kind": 5804,
      "Rel": 5805,
      "raw": 5806,
      "adian": 5807,
      "iful": 5808,
      "ĠDuring": 5809,
      "Sl": 5810,
      "Tests": 5811,
      "throws": 5812,
      "ĠNow": 5813,
      "Ġ2003": 5814,
      "Ġeye": 5815,
      "Body": 5816,
      "ĠGL": 5817,
      "|-": 5818,
      "inder": 5819,
      "Ġdifference": 5820,
      "()),": 5821,
      "cat": 5822,
      "flags": 5823,
      "Ġclasses": 5824,
      "ĠUser": 5825,
      "Ġfair": 5826,
      "Enabled": 5827,
      "ĠDay": 5828,
      "asure": 5829,
      "PORT": 5830,
      "FILE": 5831,
      "ROM": 5832,
      "bert": 5833,
      "ĠLoc": 5834,
      "Ġcat": 5835,
      "Device": 5836,
      "cloud": 5837,
      "legal": 5838,
      "ĠVer": 5839,
      "Ġreserved": 5840,
      "Ġsafet": 5841,
      "Sw": 5842,
      "Ġoccurre": 5843,
      "desc": 5844,
      "Ġdeg": 5845,
      "Ġburn": 5846,
      "AY": 5847,
      "JSON": 5848,
      "ĠAssociation": 5849,
      "idents": 5850,
      "rs": 5851,
      "Ġsafety": 5852,
      "IGHT": 5853,
      "ĠSpan": 5854,
      "Ġconstruct": 5855,
      "nce": 5856,
      "Ġinfluence": 5857,
      "icks": 5858,
      "Ġpri": 5859,
      "antic": 5860,
      "Ġremember": 5861,
      "ĠDiv": 5862,
      "ounced": 5863,
      "Ġconstruction": 5864,
      "Queue": 5865,
      "step": 5866,
      "*)": 5867,
      "ander": 5868,
      "Ġbenefits": 5869,
      "Ġ[];": 5870,
      "access": 5871,
      "ĠOver": 5872,
      "hs": 5873,
      "\")]": 5874,
      "material": 5875,
      "Title": 5876,
      "Ġhelps": 5877,
      "Classes": 5878,
      "Ġ),": 5879,
      "Ġstorage": 5880,
      "Ġworked": 5881,
      "(-": 5882,
      "ORM": 5883,
      "ih": 5884,
      "DIR": 5885,
      "Ġmaster": 5886,
      "ĠAfrican": 5887,
      "ĠRobert": 5888,
      "uries": 5889,
      "SIZE": 5890,
      "ĠError": 5891,
      "Ġideas": 5892,
      "BO": 5893,
      "urt": 5894,
      "session": 5895,
      "plements": 5896,
      "Lo": 5897,
      "ntax": 5898,
      "ountry": 5899,
      "Ġcreating": 5900,
      "[:": 5901,
      "Definition": 5902,
      "Ġgrowing": 5903,
      "iber": 5904,
      "ĠjQuery": 5905,
      "Reference": 5906,
      "81": 5907,
      "Now": 5908,
      "Ġ\"\"": 5909,
      "ĠHel": 5910,
      "osoph": 5911,
      "ĠMem": 5912,
      "Ġoffice": 5913,
      "Py": 5914,
      "ĠMary": 5915,
      "Ġtruth": 5916,
      "Ġcontract": 5917,
      "åĬ": 5918,
      "ĠGen": 5919,
      "Expr": 5920,
      "numer": 5921,
      "Ġtools": 5922,
      "Values": 5923,
      "scroll": 5924,
      "Click": 5925,
      "Ġfinally": 5926,
      "Ġenvironmental": 5927,
      "ĠPresident": 5928,
      "gorith": 5929,
      "ĠJust": 5930,
      "SSERT": 5931,
      "ĠOper": 5932,
      "Ġoccup": 5933,
      "lim": 5934,
      "Ġ2002": 5935,
      "So": 5936,
      "Ġandroid": 5937,
      "Ġstri": 5938,
      "Ġexport": 5939,
      "full": 5940,
      "Ġsubs": 5941,
      "Ġblue": 5942,
      "Ġtransfer": 5943,
      "Post": 5944,
      "mitted": 5945,
      "Ġang": 5946,
      "ĠLaw": 5947,
      "ĠDistrict": 5948,
      "Ġvolume": 5949,
      "Ġancient": 5950,
      "Mark": 5951,
      "begin": 5952,
      "region": 5953,
      "ĠCath": 5954,
      "amera": 5955,
      "ansport": 5956,
      "Ġdistribution": 5957,
      "Ġcontaining": 5958,
      "Mar": 5959,
      "BC": 5960,
      "ipment": 5961,
      "coin": 5962,
      "ANT": 5963,
      "Ġcapital": 5964,
      "non": 5965,
      "ĠBel": 5966,
      "Ġeverything": 5967,
      "ingu": 5968,
      "anded": 5969,
      "sql": 5970,
      "hol": 5971,
      "Ġ{};": 5972,
      "ĠChild": 5973,
      "apes": 5974,
      "åľ": 5975,
      "uple": 5976,
      "Ä±": 5977,
      "Ġwatch": 5978,
      "password": 5979,
      "Ġperformed": 5980,
      "ares": 5981,
      "Ġdemonstr": 5982,
      "////////////////////////////////": 5983,
      "arden": 5984,
      "irty": 5985,
      "Ġdanger": 5986,
      "Po": 5987,
      "Step": 5988,
      "Ġerrors": 5989,
      "ĉĉĉĉĉĉĉĉĉ": 5990,
      "Ġsurround": 5991,
      "Timeout": 5992,
      "DR": 5993,
      "while": 5994,
      "ĠOff": 5995,
      "del": 5996,
      "Tab": 5997,
      "Ġappeared": 5998,
      "Ġtravel": 5999,
      "Api": 6000,
      "emon": 6001,
      "bet": 6002,
      "ĠCode": 6003,
      "Ġveh": 6004,
      "ĠRoy": 6005,
      ".__": 6006,
      "Pat": 6007,
      "256": 6008,
      "ĠPal": 6009,
      "Ġbirths": 6010,
      "Ġreach": 6011,
      "erry": 6012,
      "orial": 6013,
      "tw": 6014,
      "Ġcharge": 6015,
      "Copy": 6016,
      "Ġhandler": 6017,
      "Ġcompared": 6018,
      "endar": 6019,
      "Rect": 6020,
      "Ġauth": 6021,
      "Ġaware": 6022,
      "Ġtesting": 6023,
      "Ġconsole": 6024,
      "Ġbutton": 6025,
      "KEY": 6026,
      "tip": 6027,
      "ĠBase": 6028,
      "ĠCouncil": 6029,
      "ĠTechn": 6030,
      "move": 6031,
      "Ġtab": 6032,
      "Ġfn": 6033,
      "ignment": 6034,
      "moz": 6035,
      "LAG": 6036,
      "Exp": 6037,
      "ĠUnion": 6038,
      "ĠArg": 6039,
      "Ġmusc": 6040,
      "Ġutil": 6041,
      "house": 6042,
      "under": 6043,
      "Ġ~": 6044,
      "ously": 6045,
      "PS": 6046,
      "Ġcorrespond": 6047,
      "Ġorganization": 6048,
      "Ġquant": 6049,
      "ĠRun": 6050,
      "Ġlargest": 6051,
      "spe": 6052,
      "iring": 6053,
      "Ġvoc": 6054,
      "ston": 6055,
      "Ġelection": 6056,
      "Ġones": 6057,
      "tty": 6058,
      "product": 6059,
      "ĠIsrael": 6060,
      "%,": 6061,
      "ABILITY": 6062,
      "çĶ¨": 6063,
      "Channel": 6064,
      "Ġsummer": 6065,
      "Ġtelevision": 6066,
      "Graph": 6067,
      "Ġbecomes": 6068,
      "She": 6069,
      "fill": 6070,
      "ĠSim": 6071,
      "ota": 6072,
      "Track": 6073,
      "stop": 6074,
      "ĠChinese": 6075,
      "range": 6076,
      "ady": 6077,
      "arian": 6078,
      "each": 6079,
      "ĠAL": 6080,
      "Ġwid": 6081,
      "cean": 6082,
      "Ġanimal": 6083,
      "Ġshift": 6084,
      "Ġphil": 6085,
      "ĠVir": 6086,
      "MAX": 6087,
      "Ġmock": 6088,
      "Ġapplied": 6089,
      "Shape": 6090,
      "Ġdegree": 6091,
      "Ġinform": 6092,
      "isf": 6093,
      "Ġinstanceof": 6094,
      "Ġwriter": 6095,
      "ĠHere": 6096,
      "vant": 6097,
      "SY": 6098,
      "aby": 6099,
      "Ġjavax": 6100,
      "Ġchannel": 6101,
      "Ġappoint": 6102,
      "255": 6103,
      "Ġmatrix": 6104,
      "ĠLI": 6105,
      "elegate": 6106,
      "Ġfaith": 6107,
      "ucture": 6108,
      "iders": 6109,
      "global": 6110,
      "ĠEvent": 6111,
      "Ġchalleng": 6112,
      "Draw": 6113,
      "ä¹": 6114,
      "Ġwrong": 6115,
      "hav": 6116,
      "comment": 6117,
      "Ġdesc": 6118,
      "Ġsets": 6119,
      "Meta": 6120,
      "illa": 6121,
      "Ġdro": 6122,
      "Ġcarbon": 6123,
      "Ġtouch": 6124,
      "Ġready": 6125,
      "Ġriver": 6126,
      "Ġaud": 6127,
      "mock": 6128,
      "resp": 6129,
      "Ġng": 6130,
      "Ġenjoy": 6131,
      "enge": 6132,
      "you": 6133,
      "Ġpatient": 6134,
      "ĠRich": 6135,
      "Ġcoming": 6136,
      "area": 6137,
      "ynchron": 6138,
      "si": 6139,
      "Agent": 6140,
      "atically": 6141,
      "Ġnote": 6142,
      "Â°": 6143,
      "Ġperhaps": 6144,
      "Writer": 6145,
      "eries": 6146,
      "Ġweeks": 6147,
      "Ġsust": 6148,
      "Ġboard": 6149,
      ";}": 6150,
      ")));": 6151,
      "Ġdefine": 6152,
      "ĠCre": 6153,
      "centr": 6154,
      "Ġtend": 6155,
      "Ġreached": 6156,
      "ACT": 6157,
      "Rev": 6158,
      "Ġfailure": 6159,
      "writ": 6160,
      "Non": 6161,
      "orders": 6162,
      "Dialog": 6163,
      "'])": 6164,
      "Job": 6165,
      "Ġwarm": 6166,
      "aration": 6167,
      "Ġicon": 6168,
      "ĠJer": 6169,
      "ĠSociety": 6170,
      "ĠValue": 6171,
      "Ġpurch": 6172,
      "olver": 6173,
      "ĠRepublic": 6174,
      "ighest": 6175,
      "ping": 6176,
      "ĠOp": 6177,
      "Ġsolution": 6178,
      "skip": 6179,
      "onom": 6180,
      "VID": 6181,
      "ĠMichael": 6182,
      "Ġcook": 6183,
      "odies": 6184,
      "ĠURL": 6185,
      "MENT": 6186,
      "Ġfilms": 6187,
      "Ġhighly": 6188,
      "jo": 6189,
      "roke": 6190,
      "ĠAut": 6191,
      "np": 6192,
      "tmp": 6193,
      "Ġdaily": 6194,
      "cape": 6195,
      "Ġdecre": 6196,
      "ĠAng": 6197,
      "Ġstarting": 6198,
      "Ġfinancial": 6199,
      "related": 6200,
      "Ġcou": 6201,
      "ĠDem": 6202,
      "Ġgives": 6203,
      "ibly": 6204,
      "ĠProv": 6205,
      "Ġadapt": 6206,
      "Ġwallet": 6207,
      "Ġgenerated": 6208,
      "Ġsizeof": 6209,
      "inger": 6210,
      "Ġsecret": 6211,
      "Byte": 6212,
      "ato": 6213,
      "Ġcele": 6214,
      "di": 6215,
      "osing": 6216,
      "Ġinsert": 6217,
      "Ġactions": 6218,
      "ao": 6219,
      "Ġroute": 6220,
      "ĠTem": 6221,
      "ĠĠĠĠĠĠĠĠĠĠĠĠĠĠĠĠĠĠĠĠĠĠĠĠĠĠ": 6222,
      "Ġpen": 6223,
      "Ġimmediately": 6224,
      "initial": 6225,
      "Ġplatform": 6226,
      "Before": 6227,
      "aaaaaaaa": 6228,
      "ologies": 6229,
      "Ġupper": 6230,
      "holder": 6231,
      "atalog": 6232,
      "rase": 6233,
      "Scope": 6234,
      "Xml": 6235,
      "ĠJesus": 6236,
      "Ġadministr": 6237,
      "Ġbtn": 6238,
      "ĠNO": 6239,
      "Ġjoin": 6240,
      "shape": 6241,
      "Ġaspect": 6242,
      "Any": 6243,
      "****************************************************************": 6244,
      "fd": 6245,
      "ĠHand": 6246,
      "Ġbelong": 6247,
      "bootstrap": 6248,
      "Active": 6249,
      "ĠHen": 6250,
      "Ġimag": 6251,
      ";/": 6252,
      "Ġhabit": 6253,
      "Ġexpert": 6254,
      "ĠAlthough": 6255,
      "Ġ31": 6256,
      "DATE": 6257,
      "Ġdescribe": 6258,
      "Ġseek": 6259,
      "Matrix": 6260,
      "tbody": 6261,
      "save": 6262,
      "IE": 6263,
      "ATH": 6264,
      "van": 6265,
      "Ġcomponents": 6266,
      "Ġfamilies": 6267,
      "Ġcoast": 6268,
      "lymp": 6269,
      "Application": 6270,
      "bi": 6271,
      "ĠBer": 6272,
      "aine": 6273,
      "evelopment": 6274,
      "ĠĠĠĠĠĠĠĠĠĠĠĠĠĠĠĠĠĠĠĠĠĠĠĠĠĠĠĠĠĠĠĠĠĠĠĠĠĠĠĠĠĠĠĠĠĠĠĠĠĠĠĠĠĠĠĠĠĠĠĠĠĠĠĠ": 6275,
      "Ġsupp": 6276,
      "master": 6277,
      "ĠMor": 6278,
      "Bit": 6279,
      "ĠMex": 6280,
      "Ġrace": 6281,
      "Ġsupply": 6282,
      "Panel": 6283,
      "71": 6284,
      "Ġdeveloping": 6285,
      "Me": 6286,
      "hadoop": 6287,
      "arter": 6288,
      "PH": 6289,
      "Ġleaves": 6290,
      "bad": 6291,
      "Ġcompar": 6292,
      "Ġaccur": 6293,
      "bal": 6294,
      "Ġclosed": 6295,
      "WARE": 6296,
      "faces": 6297,
      "ville": 6298,
      "Ġpsych": 6299,
      "WS": 6300,
      "Ġnegative": 6301,
      "Ġsch": 6302,
      "ĠPost": 6303,
      "ĠField": 6304,
      "Ġcommunities": 6305,
      "Ñĥ": 6306,
      "oom": 6307,
      "STAT": 6308,
      "ycl": 6309,
      "Ġdry": 6310,
      "echo": 6311,
      "Ġforces": 6312,
      "Ġdecision": 6313,
      "Ġnation": 6314,
      "Ġ'\\": 6315,
      "ilk": 6316,
      "Ġio": 6317,
      "ydro": 6318,
      "wide": 6319,
      "Ġbey": 6320,
      "Ġcourt": 6321,
      "tc": 6322,
      "ils": 6323,
      "Ġpaint": 6324,
      "iny": 6325,
      "OFT": 6326,
      "short": 6327,
      "Ġcarried": 6328,
      "webpack": 6329,
      "aset": 6330,
      "Send": 6331,
      "svg": 6332,
      "\">&": 6333,
      "Ġ\\\"": 6334,
      "Ġremov": 6335,
      "Ġremains": 6336,
      "olec": 6337,
      "Custom": 6338,
      "Ġball": 6339,
      "ĠBro": 6340,
      "Ġpy": 6341,
      "Ġbeyond": 6342,
      "iverse": 6343,
      "Only": 6344,
      "93": 6345,
      "Ġhidden": 6346,
      "ĠKey": 6347,
      "ICE": 6348,
      "enth": 6349,
      "lict": 6350,
      "ether": 6351,
      "Ġearlier": 6352,
      "NOT": 6353,
      "Pool": 6354,
      "CM": 6355,
      "()));": 6356,
      "Ġdb": 6357,
      "FL": 6358,
      "imated": 6359,
      "Ġincor": 6360,
      "Ġâ": 6361,
      "Ġfixed": 6362,
      "Ġorigin": 6363,
      "Ġappears": 6364,
      "ĠLou": 6365,
      "oles": 6366,
      "Ġemail": 6367,
      "edit": 6368,
      "icated": 6369,
      "hens": 6370,
      "98": 6371,
      "arp": 6372,
      "Ġnuc": 6373,
      "Ġfun": 6374,
      "eal": 6375,
      "Ġmiles": 6376,
      "[$": 6377,
      "_->": 6378,
      "orest": 6379,
      "apply": 6380,
      "Vert": 6381,
      "jection": 6382,
      "usion": 6383,
      "Ġsituation": 6384,
      "fony": 6385,
      "ĠSince": 6386,
      "ĠArmy": 6387,
      "atio": 6388,
      "Ġ2001": 6389,
      "Ġexists": 6390,
      "ĠCup": 6391,
      "Has": 6392,
      "abilities": 6393,
      "ĠMart": 6394,
      "riev": 6395,
      "Ġfelt": 6396,
      "ĠKe": 6397,
      "Ġprice": 6398,
      "Ġmachine": 6399,
      "pute": 6400,
      "pret": 6401,
      "ĠJapanese": 6402,
      "Ġcritical": 6403,
      "Ġvoice": 6404,
      "track": 6405,
      "band": 6406,
      "organ": 6407,
      "Ġcounter": 6408,
      "Ġcommercial": 6409,
      "pped": 6410,
      "she": 6411,
      "Ġrandom": 6412,
      "ĠAre": 6413,
      "Ġcolon": 6414,
      "ocaml": 6415,
      "ĠParty": 6416,
      "Ġperfect": 6417,
      "contrib": 6418,
      "ĠMethod": 6419,
      "Ġseven": 6420,
      "ĠDet": 6421,
      "Ġgoes": 6422,
      "Ġkeys": 6423,
      "ĠCourt": 6424,
      "Events": 6425,
      "Ġassist": 6426,
      "uated": 6427,
      "Ġkids": 6428,
      "ctr": 6429,
      "={": 6430,
      "nap": 6431,
      "Ġprojects": 6432,
      "Ġlabor": 6433,
      "ymfony": 6434,
      "Ġsteps": 6435,
      "Ġeg": 6436,
      "ifies": 6437,
      "Prop": 6438,
      "FR": 6439,
      "ById": 6440,
      "ician": 6441,
      "Ġpeace": 6442,
      "ittee": 6443,
      "ugar": 6444,
      "shot": 6445,
      "Ġ2018": 6446,
      "Ġdrop": 6447,
      "ucket": 6448,
      "cm": 6449,
      "tsd": 6450,
      "alian": 6451,
      "Ġlegal": 6452,
      "Ġacid": 6453,
      "Package": 6454,
      "look": 6455,
      "Ġradio": 6456,
      "Float": 6457,
      "Policy": 6458,
      "Ġsomeone": 6459,
      "browser": 6460,
      "ç»": 6461,
      "Ġfle": 6462,
      "iency": 6463,
      "install": 6464,
      "Ġmission": 6465,
      "ĠInst": 6466,
      "Ġtrade": 6467,
      "ĠĠĠĠĠĠĠĠĠĠĠĠĠĠĠĠĠĠĠĠĠĠĠĠĠĠĠĠĠ": 6468,
      "Ġconsequ": 6469,
      "Ġarm": 6470,
      "ĠGoogle": 6471,
      "Ġsmaller": 6472,
      "Perm": 6473,
      "ĠLong": 6474,
      "Ġmaximum": 6475,
      "Network": 6476,
      "Ġthr": 6477,
      "Ġ\"%": 6478,
      "160": 6479,
      "Ġdomain": 6480,
      "Ġknew": 6481,
      "assets": 6482,
      "ved": 6483,
      "Ġlock": 6484,
      "Go": 6485,
      "Plugin": 6486,
      "poss": 6487,
      "ĠId": 6488,
      "switch": 6489,
      "ĠNav": 6490,
      "modules": 6491,
      "outer": 6492,
      "za": 6493,
      "Ġpick": 6494,
      "Ġarchitect": 6495,
      "Ġteachers": 6496,
      "ancel": 6497,
      "Ġpp": 6498,
      "Ġteaching": 6499,
      "Ð»": 6500,
      "Ġowner": 6501,
      "Init": 6502,
      "Ġresponsible": 6503,
      "domain": 6504,
      "tags": 6505,
      "Ġvisible": 6506,
      "Ġkilled": 6507,
      "riage": 6508,
      "Ġconcentr": 6509,
      "alar": 6510,
      "Ġappropriate": 6511,
      "Ġhour": 6512,
      "Ġchief": 6513,
      "itness": 6514,
      "igin": 6515,
      "Ġassum": 6516,
      "Ident": 6517,
      "Ġ{\"": 6518,
      "ĠRel": 6519,
      "Ġadvant": 6520,
      "500": 6521,
      "Ġstack": 6522,
      "Ġcalls": 6523,
      "Ġfill": 6524,
      "OFTWARE": 6525,
      "\"`": 6526,
      "æĺ¯": 6527,
      "ĠAlso": 6528,
      "ĠHol": 6529,
      "fmt": 6530,
      "ĠCongress": 6531,
      "ini": 6532,
      "hentication": 6533,
      "ĠRet": 6534,
      "El": 6535,
      "iques": 6536,
      "dist": 6537,
      "Ġproced": 6538,
      "ixture": 6539,
      "Ġseparate": 6540,
      "Ġice": 6541,
      "Ġrail": 6542,
      "Ġcold": 6543,
      "ĠSup": 6544,
      "ilation": 6545,
      "Ġlooked": 6546,
      "eration": 6547,
      "Ġindust": 6548,
      "ena": 6549,
      "Ġlab": 6550,
      "Ġnodes": 6551,
      "his": 6552,
      "Ġ80": 6553,
      "Ġgenerate": 6554,
      "Ġrecorded": 6555,
      "Ġvector": 6556,
      "]:": 6557,
      "Ġdie": 6558,
      "rian": 6559,
      "Some": 6560,
      "Ġinstr": 6561,
      "Ġscientists": 6562,
      "ĠVAL": 6563,
      "Di": 6564,
      "ĠIP": 6565,
      "Ġdeaths": 6566,
      "urrency": 6567,
      "oma": 6568,
      "Ġtro": 6569,
      "Account": 6570,
      "ĠIE": 6571,
      "Ġrare": 6572,
      "Ġ>>": 6573,
      "ECT": 6574,
      "ĠTex": 6575,
      "aver": 6576,
      ")),": 6577,
      "bytes": 6578,
      "DS": 6579,
      "TC": 6580,
      "Ġwat": 6581,
      "Ġpred": 6582,
      "posite": 6583,
      "Ġexternal": 6584,
      "Ġpresence": 6585,
      "recated": 6586,
      "Ġbul": 6587,
      "Ġtypeof": 6588,
      "Ġworth": 6589,
      "wrap": 6590,
      "Ġmental": 6591,
      "Ġ}}": 6592,
      "Ġtrying": 6593,
      "Ġabsolute": 6594,
      "Ġfully": 6595,
      "ĠProgram": 6596,
      "Ġrespond": 6597,
      "Ġanaly": 6598,
      "Ġintroduced": 6599,
      "Ġefforts": 6600,
      "97": 6601,
      "igration": 6602,
      "getElement": 6603,
      "sem": 6604,
      "Ġcreation": 6605,
      ".*": 6606,
      "isation": 6607,
      "brief": 6608,
      "ĠWestern": 6609,
      "ĠIsland": 6610,
      "ĠSl": 6611,
      "Ġsac": 6612,
      "sec": 6613,
      "tons": 6614,
      "Ġrich": 6615,
      "ĠBen": 6616,
      "Ġtrust": 6617,
      "Ġfoods": 6618,
      "ĠFalse": 6619,
      "Ġhear": 6620,
      "LOG": 6621,
      "Ġveget": 6622,
      "Ġapprox": 6623,
      "Ġisn": 6624,
      "assertEquals": 6625,
      "Ġbasis": 6626,
      "stats": 6627,
      "cor": 6628,
      "Ġlayer": 6629,
      "ĠUN": 6630,
      "Ġcoord": 6631,
      "Ġoperator": 6632,
      "oul": 6633,
      "ĠCS": 6634,
      "ĠEducation": 6635,
      "orter": 6636,
      "life": 6637,
      "Ġreflect": 6638,
      "Ġbattle": 6639,
      "application": 6640,
      "Ġsigned": 6641,
      "SION": 6642,
      "Changed": 6643,
      "PAR": 6644,
      "ette": 6645,
      "Ġexamples": 6646,
      "ĠThomas": 6647,
      "Ġvit": 6648,
      "Ġdevices": 6649,
      "======": 6650,
      "Ġremained": 6651,
      "ĠGreen": 6652,
      "math": 6653,
      "Ġprefer": 6654,
      "ensity": 6655,
      "TABLE": 6656,
      "oth": 6657,
      "ĠMal": 6658,
      "Ġship": 6659,
      "points": 6660,
      "Ġcore": 6661,
      "expr": 6662,
      "Ġdoctor": 6663,
      "Support": 6664,
      "Ġ(_": 6665,
      "ĠTask": 6666,
      "Ġedge": 6667,
      "istent": 6668,
      "!âĢĿ": 6669,
      "controller": 6670,
      "Ġimportance": 6671,
      "CN": 6672,
      "Ġfunc": 6673,
      "FLAG": 6674,
      "bing": 6675,
      "ĠCharles": 6676,
      "names": 6677,
      "ooth": 6678,
      "Ġeventually": 6679,
      "Ġdidn": 6680,
      "Ġpoll": 6681,
      "ifications": 6682,
      "Debug": 6683,
      "ees": 6684,
      "oses": 6685,
      "Show": 6686,
      "ned": 6687,
      "ĠFunction": 6688,
      "Ġdiscovered": 6689,
      "handler": 6690,
      "Ġcitiz": 6691,
      "Ġrapid": 6692,
      "iples": 6693,
      "required": 6694,
      "straint": 6695,
      "Ġclick": 6696,
      "Ġdefe": 6697,
      "ĠStreet": 6698,
      "poses": 6699,
      "Ġexercise": 6700,
      "Ġselection": 6701,
      "ĠSpanish": 6702,
      "ĠUK": 6703,
      "nes": 6704,
      "anguages": 6705,
      "Ġdefinition": 6706,
      "ĠConfig": 6707,
      "Ġserial": 6708,
      "Ġprotection": 6709,
      "Ġasync": 6710,
      "Ġcelebr": 6711,
      "Ġscientific": 6712,
      "Ġfemale": 6713,
      "Loader": 6714,
      "Ġtransparent": 6715,
      "Ġimplementation": 6716,
      "NotNull": 6717,
      "NULL": 6718,
      "clusion": 6719,
      "Ġpan": 6720,
      "sys": 6721,
      "Ġspent": 6722,
      "enum": 6723,
      "bour": 6724,
      "ĠTODO": 6725,
      "Ġmanager": 6726,
      "Ġ1990": 6727,
      "water": 6728,
      "USE": 6729,
      "git": 6730,
      "ĠSOFTWARE": 6731,
      "sidebar": 6732,
      "compiler": 6733,
      "Ġchoose": 6734,
      "Ġworkers": 6735,
      "}.": 6736,
      "uke": 6737,
      "ĠSen": 6738,
      "Ġhighest": 6739,
      "ĠMag": 6740,
      "Ġstar": 6741,
      "Ġattributes": 6742,
      "Ġmarried": 6743,
      "ĠCompany": 6744,
      "Transform": 6745,
      "Ġapplications": 6746,
      "Ġforeign": 6747,
      "Ġbed": 6748,
      "Ġlived": 6749,
      "theme": 6750,
      "Ġdiseases": 6751,
      "Ġepis": 6752,
      "Ġfort": 6753,
      "ipeline": 6754,
      "ĠDev": 6755,
      "Ġ2020": 6756,
      "]]": 6757,
      "Ġunless": 6758,
      "Scale": 6759,
      "400": 6760,
      "isms": 6761,
      "done": 6762,
      "Ġbrother": 6763,
      "Ġhumans": 6764,
      "Ġrates": 6765,
      "Ġpor": 6766,
      "ĠSam": 6767,
      "xs": 6768,
      "ĠMont": 6769,
      "Ġbank": 6770,
      "ĠFrank": 6771,
      "vest": 6772,
      "Initial": 6773,
      "è¡": 6774,
      "Ġidentify": 6775,
      "92": 6776,
      "Extension": 6777,
      "ĠMount": 6778,
      "Ġadopt": 6779,
      "Ġkept": 6780,
      "ishing": 6781,
      "selected": 6782,
      "nections": 6783,
      "Ġeditor": 6784,
      "Attributes": 6785,
      "Ġwonder": 6786,
      "Ġtoward": 6787,
      "ĠText": 6788,
      "Ġ2019": 6789,
      "Ġtypically": 6790,
      "Ġreasons": 6791,
      "abric": 6792,
      "Cal": 6793,
      "Ġagricult": 6794,
      "enter": 6795,
      "language": 6796,
      "category": 6797,
      "wait": 6798,
      "Ġrecords": 6799,
      "ĠColor": 6800,
      "Selector": 6801,
      "otes": 6802,
      "Msg": 6803,
      "Ġfigure": 6804,
      "Ġpiece": 6805,
      "uri": 6806,
      "screen": 6807,
      "Ġunits": 6808,
      "Ġenable": 6809,
      "Ġmorning": 6810,
      "Ġstaff": 6811,
      "Ġunknown": 6812,
      "schema": 6813,
      "security": 6814,
      "Ġproviding": 6815,
      "reset": 6816,
      "People": 6817,
      "Ret": 6818,
      "These": 6819,
      "Transaction": 6820,
      "Ġdemand": 6821,
      "ĠBay": 6822,
      "While": 6823,
      "Ġpermission": 6824,
      "Ġyield": 6825,
      "Ġjoint": 6826,
      "ura": 6827,
      "igen": 6828,
      "ĠTher": 6829,
      "Ġthinking": 6830,
      "Ġtrigger": 6831,
      "Ġdeliver": 6832,
      "Common": 6833,
      "mask": 6834,
      "Ġhistorical": 6835,
      "Lock": 6836,
      "den": 6837,
      "props": 6838,
      "Rule": 6839,
      "primary": 6840,
      "Ġstatement": 6841,
      "Ġprim": 6842,
      "ĠJack": 6843,
      "stances": 6844,
      "Files": 6845,
      "Ġsolar": 6846,
      "Ġrecently": 6847,
      "ĠMake": 6848,
      "Ġconnected": 6849,
      "Ġshared": 6850,
      "Conf": 6851,
      "ĠWindow": 6852,
      "ĠParam": 6853,
      "Ġque": 6854,
      "94": 6855,
      "GR": 6856,
      "pay": 6857,
      "SR": 6858,
      "ĠIll": 6859,
      "ora": 6860,
      "Ġolder": 6861,
      "ĠBudd": 6862,
      "Ġpet": 6863,
      "isters": 6864,
      "Ġraw": 6865,
      "Ġplease": 6866,
      "jango": 6867,
      "Ġyourself": 6868,
      "Ġgoals": 6869,
      "ien": 6870,
      "ailure": 6871,
      "overs": 6872,
      "Ġbelieved": 6873,
      "ĠDefault": 6874,
      "oday": 6875,
      "Register": 6876,
      "hetic": 6877,
      "ĠExt": 6878,
      "found": 6879,
      "Ġenem": 6880,
      "Found": 6881,
      "Â¤": 6882,
      "Ġpages": 6883,
      "Ġfinished": 6884,
      "job": 6885,
      "Ġdaughter": 6886,
      "ancis": 6887,
      "Ġinvalid": 6888,
      "Ġrob": 6889,
      "uls": 6890,
      "Ġgiving": 6891,
      "Ġregarding": 6892,
      "Close": 6893,
      "kens": 6894,
      "Ġfat": 6895,
      "Ġminor": 6896,
      "Ġchain": 6897,
      "Ġabstract": 6898,
      "Ġ\"\",": 6899,
      "ĠProf": 6900,
      "ĠNote": 6901,
      "results": 6902,
      "have": 6903,
      "shall": 6904,
      "Ġcompletely": 6905,
      "Ġpush": 6906,
      "Ġnovel": 6907,
      "Ġpassword": 6908,
      "Ġsites": 6909,
      "component": 6910,
      "issue": 6911,
      "{\"": 6912,
      "Ġlett": 6913,
      "Ġprocesses": 6914,
      "Ġpointer": 6915,
      "ĠVirgin": 6916,
      "when": 6917,
      "bound": 6918,
      "Ġdecided": 6919,
      "Ġplaying": 6920,
      "Ġhit": 6921,
      "Ġopportunity": 6922,
      "BUG": 6923,
      "------------": 6924,
      "pull": 6925,
      "ometry": 6926,
      "Ġstrugg": 6927,
      ")\"": 6928,
      "Ġoccurs": 6929,
      "Ġjoined": 6930,
      "Ġequipment": 6931,
      "Ġteacher": 6932,
      "jQuery": 6933,
      "ĠEven": 6934,
      "Failed": 6935,
      "Ġopin": 6936,
      "ircle": 6937,
      "ĠAS": 6938,
      "ĠOrder": 6939,
      "DA": 6940,
      "ĠMad": 6941,
      "Dest": 6942,
      "xff": 6943,
      "ĠModel": 6944,
      "ernel": 6945,
      "riteria": 6946,
      "2015": 6947,
      "ĠIOException": 6948,
      "('#": 6949,
      "Ġbuildings": 6950,
      "atest": 6951,
      "Ġarmy": 6952,
      "ĠEV": 6953,
      "ĠCatholic": 6954,
      "ĠSir": 6955,
      "Items": 6956,
      "protected": 6957,
      "Ġheavy": 6958,
      "ste": 6959,
      "ĠÎ": 6960,
      "profile": 6961,
      "Ġ90": 6962,
      "Ġpreviously": 6963,
      "Ġfresh": 6964,
      "Cons": 6965,
      "collection": 6966,
      "Ġdoor": 6967,
      "ĉĉĉĉĉĉĉĉĉĉĉ": 6968,
      "Scroll": 6969,
      "Ġoccurred": 6970,
      "reedom": 6971,
      "Ġjournal": 6972,
      "Ġvalign": 6973,
      "Ġcosts": 6974,
      "ĠMer": 6975,
      "subs": 6976,
      "UID": 6977,
      "agnost": 6978,
      "Ðº": 6979,
      "Ġanti": 6980,
      "lyphicon": 6981,
      "ĠSy": 6982,
      "åį": 6983,
      "Ġoverall": 6984,
      "arc": 6985,
      "Ġdocumentation": 6986,
      "xf": 6987,
      "Ġtour": 6988,
      "ĠØ": 6989,
      "filename": 6990,
      "Ġcapacity": 6991,
      "prev": 6992,
      "ĠTexas": 6993,
      "IMIT": 6994,
      "protobuf": 6995,
      "FE": 6996,
      "Sm": 6997,
      "ella": 6998,
      "æĹ": 6999,
      "uest": 7000,
      "Ġtopic": 7001,
      "Ġapi": 7002,
      "dates": 7003,
      "ĠTheir": 7004,
      "care": 7005,
      "forms": 7006,
      "2020": 7007,
      "Ġmajority": 7008,
      "trigger": 7009,
      "Ġ\"-": 7010,
      "Editor": 7011,
      "idx": 7012,
      "<!": 7013,
      "vo": 7014,
      "Flags": 7015,
      "=>": 7016,
      "Ġaffected": 7017,
      "ployment": 7018,
      "contains": 7019,
      "åŃ": 7020,
      "Ġ${": 7021,
      "getName": 7022,
      "ded": 7023,
      "Ġzero": 7024,
      "dialog": 7025,
      "fly": 7026,
      "real": 7027,
      "Ġpublish": 7028,
      "Ġreplaced": 7029,
      "Ġrise": 7030,
      "SCR": 7031,
      "Ġpredict": 7032,
      "limit": 7033,
      "Ġvisual": 7034,
      "Ġaward": 7035,
      "iterator": 7036,
      "lines": 7037,
      ">::": 7038,
      "engine": 7039,
      "Ġseemed": 7040,
      "Ġentered": 7041,
      "Ġverify": 7042,
      "pol": 7043,
      "Ġgets": 7044,
      "Ġgrand": 7045,
      "æķ°": 7046,
      "NavBarCell": 7047,
      "eces": 7048,
      "Ġstrength": 7049,
      "total": 7050,
      "ĉĉĉĉĉĉĉĉĉĉĉĉĉĉ": 7051,
      "oken": 7052,
      "Ġisland": 7053,
      ")->": 7054,
      "Windows": 7055,
      "ĠGovernment": 7056,
      "olid": 7057,
      "apers": 7058,
      "Ġdigital": 7059,
      "RES": 7060,
      "Er": 7061,
      "Ġserve": 7062,
      "power": 7063,
      "Ġcollege": 7064,
      "ĠAustralian": 7065,
      "Iterator": 7066,
      "ĠEach": 7067,
      "grade": 7068,
      "Ġreduced": 7069,
      "inet": 7070,
      "Ġmoving": 7071,
      "Variable": 7072,
      "ĠLet": 7073,
      "Ġrain": 7074,
      "Ġslight": 7075,
      "ris": 7076,
      "icket": 7077,
      "Func": 7078,
      "Ġ/*!": 7079,
      "()).": 7080,
      "Ġsurpr": 7081,
      "ums": 7082,
      "estic": 7083,
      "ĠĠĠĠĠĠĠĠĠĠĠĠĠĠĠĠĠĠĠĠĠĠĠĠĠĠĠĠ": 7084,
      "Ġextension": 7085,
      "Ac": 7086,
      "Ġlatter": 7087,
      "Ġinsp": 7088,
      "Auth": 7089,
      "metadata": 7090,
      "QU": 7091,
      "Ġec": 7092,
      "Ġmonitor": 7093,
      "FUN": 7094,
      "ACE": 7095,
      "91": 7096,
      "ears": 7097,
      "safe": 7098,
      "éĢ": 7099,
      "Ġbinary": 7100,
      "editor": 7101,
      "uler": 7102,
      "ĠTor": 7103,
      "ĠMass": 7104,
      "indexOf": 7105,
      "pool": 7106,
      "Socket": 7107,
      "Ġclin": 7108,
      "Ġseed": 7109,
      "Ġfactor": 7110,
      "Depend": 7111,
      "Ġloop": 7112,
      "ĠGET": 7113,
      "Ġinfection": 7114,
      "esh": 7115,
      "ĠCam": 7116,
      "Ġelectronic": 7117,
      "Ġchoice": 7118,
      "events": 7119,
      "Ġshowed": 7120,
      "Logger": 7121,
      "Ġfederal": 7122,
      "ceeded": 7123,
      "spring": 7124,
      "Symbol": 7125,
      "ĠTim": 7126,
      "ĠOur": 7127,
      "even": 7128,
      "Ġpow": 7129,
      "Ġcommonly": 7130,
      "They": 7131,
      "Ġded": 7132,
      "gorithm": 7133,
      "Ġfavor": 7134,
      "burg": 7135,
      "Media": 7136,
      "Ġmur": 7137,
      "Results": 7138,
      "ancer": 7139,
      "Ġawait": 7140,
      "gypt": 7141,
      "Ġpresented": 7142,
      "Ġcopies": 7143,
      "{%": 7144,
      "Ġprotein": 7145,
      "(__": 7146,
      "HER": 7147,
      "Ġnumerous": 7148,
      "ĠOld": 7149,
      "ajax": 7150,
      "blank": 7151,
      "OO": 7152,
      "external": 7153,
      "ĠAmericans": 7154,
      "_(": 7155,
      "Ġflex": 7156,
      "2000": 7157,
      "Ġteeth": 7158,
      ")/": 7159,
      "Ġtemp": 7160,
      "children": 7161,
      "ĠView": 7162,
      "elta": 7163,
      "Ġfix": 7164,
      "prefix": 7165,
      "sex": 7166,
      "Ġcampaign": 7167,
      "ĠWhite": 7168,
      "Ġfine": 7169,
      "WOR": 7170,
      "Ġsubsequ": 7171,
      "('.": 7172,
      "Ġstrateg": 7173,
      "ĠĠĠĠĠĠĠĠĠĠĠĠĠĠĠĠĠĠĠĠĠĠĠĠĠĠĠĠĠĠĠĠĠĠĠĠĠĠĠĠĠĠĠĠĠĠĠ": 7174,
      "ĠRoad": 7175,
      ";\">": 7176,
      "Ġobserved": 7177,
      "usiness": 7178,
      "Ġdut": 7179,
      "Global": 7180,
      "Ġcho": 7181,
      "ÛĮ": 7182,
      "arsed": 7183,
      "lem": 7184,
      "utf": 7185,
      "Ġvacc": 7186,
      "Adapter": 7187,
      "manager": 7188,
      "ĠGl": 7189,
      "ĠJewish": 7190,
      "kw": 7191,
      "à¤": 7192,
      "iate": 7193,
      "contin": 7194,
      "Ġrequirements": 7195,
      "ĠGreek": 7196,
      "ems": 7197,
      "angular": 7198,
      "AF": 7199,
      "Ġdirector": 7200,
      "Ġhair": 7201,
      "ĠSocial": 7202,
      "æī": 7203,
      "Ġpartial": 7204,
      "ĠSecond": 7205,
      "stitution": 7206,
      "ĠNS": 7207,
      "Ġstories": 7208,
      "()</": 7209,
      "ĠThus": 7210,
      "Ġ?>": 7211,
      "ĠJournal": 7212,
      "allel": 7213,
      "ĠPub": 7214,
      "flag": 7215,
      "nam": 7216,
      "Ġbalance": 7217,
      "'ve": 7218,
      "Ġcool": 7219,
      "Cond": 7220,
      "Remove": 7221,
      "home": 7222,
      "elli": 7223,
      "ĠIts": 7224,
      "acts": 7225,
      "Ġsuc": 7226,
      "Ġraised": 7227,
      "åĽ": 7228,
      "Ġchart": 7229,
      "Ġwaves": 7230,
      "opes": 7231,
      "amples": 7232,
      "ĠAssembly": 7233,
      "rot": 7234,
      "Ġstructures": 7235,
      "Ġpowerful": 7236,
      "Ġwinter": 7237,
      "Ġexpos": 7238,
      "ĠOlymp": 7239,
      "ĠLife": 7240,
      "Ġexhib": 7241,
      "effect": 7242,
      "}/": 7243,
      "Internal": 7244,
      "Ġmouth": 7245,
      "osen": 7246,
      "Proxy": 7247,
      "Other": 7248,
      "sey": 7249,
      "Ġletters": 7250,
      "ĠON": 7251,
      "Ġacadem": 7252,
      "oped": 7253,
      "âĢ¢": 7254,
      "depth": 7255,
      "Ġbirds": 7256,
      "LL": 7257,
      "RI": 7258,
      "anned": 7259,
      "Ġpersons": 7260,
      "Ġing": 7261,
      "liament": 7262,
      "ĠUnder": 7263,
      "ToString": 7264,
      "Ġmissing": 7265,
      "Ġbehavi": 7266,
      "Ġagreement": 7267,
      "Ġcommunication": 7268,
      "uing": 7269,
      "Ġbeautiful": 7270,
      "Ġdoubt": 7271,
      "ĠHenry": 7272,
      "asket": 7273,
      "JS": 7274,
      "Ġflu": 7275,
      "Ġspring": 7276,
      "Ġprison": 7277,
      "collapse": 7278,
      "otic": 7279,
      "ĠOnly": 7280,
      "ographic": 7281,
      "Ġfounded": 7282,
      "ĠFrancis": 7283,
      "Auto": 7284,
      "ror": 7285,
      "note": 7286,
      "GB": 7287,
      "game": 7288,
      "rical": 7289,
      "Ġcultural": 7290,
      "Ġpi": 7291,
      "ĠFlor": 7292,
      "Ġillustr": 7293,
      "Ġbuf": 7294,
      "isc": 7295,
      "Ġenabled": 7296,
      "udden": 7297,
      "Ġindependent": 7298,
      "LINE": 7299,
      "ĠSD": 7300,
      "ĠNumber": 7301,
      "å°": 7302,
      "och": 7303,
      "Ġ\",": 7304,
      "details": 7305,
      "uits": 7306,
      "andard": 7307,
      "PER": 7308,
      "Second": 7309,
      "Ġ=========": 7310,
      "dule": 7311,
      "ĠParis": 7312,
      "ĉĉĉĉĉĉĊ": 7313,
      "Ġmessages": 7314,
      "Ġbenefit": 7315,
      "Ġmaintain": 7316,
      "CONF": 7317,
      "'m": 7318,
      "ami": 7319,
      "Ġrestrict": 7320,
      "Ġimplements": 7321,
      "ĠDirect": 7322,
      "ĠVol": 7323,
      "Fil": 7324,
      "icians": 7325,
      "Ġ1000": 7326,
      "Constant": 7327,
      "=\"\">": 7328,
      "ĠĠĠĠĠĠĠĠĠĠĠĠĠĠĠĠĠĠĠĠĠĠĠĠĠĠĠĠĠĠ": 7329,
      "headers": 7330,
      "entials": 7331,
      "Ġcovered": 7332,
      "Ġinvestig": 7333,
      "ĠAcadem": 7334,
      "colLast": 7335,
      "Ġ1998": 7336,
      "icial": 7337,
      "ĠMuseum": 7338,
      "Ġ{{": 7339,
      "Ġnob": 7340,
      "Ġoccasion": 7341,
      "hat": 7342,
      "mas": 7343,
      "Ġru": 7344,
      "resents": 7345,
      "ogy": 7346,
      "6666": 7347,
      "Ġhappen": 7348,
      "MB": 7349,
      "ĠHash": 7350,
      "temp": 7351,
      "Ġxml": 7352,
      "WR": 7353,
      "Profile": 7354,
      "Ġgeneration": 7355,
      "Ġmatches": 7356,
      ")).": 7357,
      "oes": 7358,
      "ĠDel": 7359,
      "OUT": 7360,
      "green": 7361,
      "Ġbecoming": 7362,
      "Ġweather": 7363,
      "Ġexperi": 7364,
      "ĠJava": 7365,
      "ĠOh": 7366,
      "ĠSal": 7367,
      "ĠPeople": 7368,
      "Ġphilosoph": 7369,
      "ĠDec": 7370,
      "rub": 7371,
      "connection": 7372,
      "Ġcities": 7373,
      "Ġwall": 7374,
      "ners": 7375,
      "Ġ^": 7376,
      "ĠBook": 7377,
      "ĠPeter": 7378,
      "testing": 7379,
      "Â¡": 7380,
      "ĠAlex": 7381,
      "reland": 7382,
      "ĠCH": 7383,
      "Ġcharg": 7384,
      "ishop": 7385,
      "Props": 7386,
      "Double": 7387,
      "integer": 7388,
      "sel": 7389,
      "ä¸ª": 7390,
      "Ġcircum": 7391,
      "Ġtransition": 7392,
      "Ġterrit": 7393,
      "tabs": 7394,
      "plugins": 7395,
      "amazon": 7396,
      "appe": 7397,
      "å¼": 7398,
      "Ġfamous": 7399,
      "Ġblocks": 7400,
      "attribute": 7401,
      "ceive": 7402,
      "ĠCanadian": 7403,
      "ĠRoyal": 7404,
      "progress": 7405,
      "Ġinteresting": 7406,
      "Ñı": 7407,
      "ificate": 7408,
      "Net": 7409,
      "Fields": 7410,
      "Single": 7411,
      "Ġtechniques": 7412,
      "Main": 7413,
      "ĠAD": 7414,
      "Attr": 7415,
      "throw": 7416,
      "Pointer": 7417,
      "rb": 7418,
      "ĠHall": 7419,
      "colFirst": 7420,
      "urb": 7421,
      "Ġpoet": 7422,
      "IPT": 7423,
      "iling": 7424,
      "Ġ>>>": 7425,
      "Ġtransl": 7426,
      "Ġentity": 7427,
      "Ġcandid": 7428,
      "Ġintellig": 7429,
      "Seg": 7430,
      "Ġanx": 7431,
      "Ġprocessing": 7432,
      "Browser": 7433,
      "Many": 7434,
      "Ġstored": 7435,
      "Ġdistinct": 7436,
      "han": 7437,
      "Ġsugar": 7438,
      "Ġpaid": 7439,
      "expect": 7440,
      "Ġbrowser": 7441,
      "Ġtrain": 7442,
      "Ġ1980": 7443,
      "Ġmanner": 7444,
      "DEFAULT": 7445,
      "errors": 7446,
      "('/": 7447,
      "ĠMrs": 7448,
      "hide": 7449,
      "Ġfol": 7450,
      "Ġidentified": 7451,
      "Ġmix": 7452,
      "aud": 7453,
      "ĠLeg": 7454,
      "Ġhyp": 7455,
      "Ġsports": 7456,
      "Ġweak": 7457,
      "Ġoffers": 7458,
      "cli": 7459,
      "Ġ/*!<": 7460,
      "Ġdetail": 7461,
      "ĠTwo": 7462,
      "ĠCentral": 7463,
      "Ġtranslate": 7464,
      "VM": 7465,
      "Ġmolec": 7466,
      "âĢĿ.": 7467,
      "Constants": 7468,
      "Memory": 7469,
      "åº": 7470,
      "ĠPath": 7471,
      "Ġforced": 7472,
      "unities": 7473,
      "SQL": 7474,
      "ki": 7475,
      "Ġbacteria": 7476,
      "Ġsequence": 7477,
      "ĠStart": 7478,
      "sets": 7479,
      "Ġmentioned": 7480,
      "shared": 7481,
      "wrapper": 7482,
      "ĠOTHER": 7483,
      "Parse": 7484,
      "CRE": 7485,
      "Ġsaying": 7486,
      "cluded": 7487,
      "phone": 7488,
      "Ġmulti": 7489,
      "}\"": 7490,
      "ĠPass": 7491,
      "******": 7492,
      "Edit": 7493,
      "Ġsevere": 7494,
      "ĠChampionship": 7495,
      "HTTP": 7496,
      "standing": 7497,
      "annotation": 7498,
      "components": 7499,
      "Keys": 7500,
      "acle": 7501,
      "Ġpray": 7502,
      "ye": 7503,
      "DATA": 7504,
      "pet": 7505,
      "ĠLake": 7506,
      "Product": 7507,
      "pressed": 7508,
      "fc": 7509,
      "herited": 7510,
      "ONE": 7511,
      "Ġsatisf": 7512,
      "Ġsustain": 7513,
      "Ġannounced": 7514,
      "'));": 7515,
      "network": 7516,
      "Region": 7517,
      "heast": 7518,
      "coming": 7519,
      "plications": 7520,
      "ĠUpdate": 7521,
      "Sup": 7522,
      "Ġreject": 7523,
      "Ġpicture": 7524,
      "ĠServ": 7525,
      "article": 7526,
      "ĠLouis": 7527,
      "ona": 7528,
      "Ġstandards": 7529,
      "Ġ$.": 7530,
      "Ġsignal": 7531,
      "Ġpractices": 7532,
      "Ã¨": 7533,
      "Ġbg": 7534,
      "ĠNode": 7535,
      "serial": 7536,
      "Ġexit": 7537,
      "Rad": 7538,
      "ĠFROM": 7539,
      "Ġcouple": 7540,
      "agraph": 7541,
      "Ġok": 7542,
      "fri": 7543,
      "Ġmask": 7544,
      "Wrapper": 7545,
      "Art": 7546,
      "icago": 7547,
      "Av": 7548,
      "edy": 7549,
      "azz": 7550,
      "phas": 7551,
      "Ġbuilder": 7552,
      "pu": 7553,
      "ĠWater": 7554,
      "ĠCollection": 7555,
      "words": 7556,
      "Ġtmp": 7557,
      "Ġpatterns": 7558,
      "tion": 7559,
      "Ġscen": 7560,
      "Ġpresident": 7561,
      "ndef": 7562,
      "SER": 7563,
      "ĠKore": 7564,
      "Ġdetect": 7565,
      "cohol": 7566,
      "Ġgod": 7567,
      "ulture": 7568,
      "ĠControl": 7569,
      "iat": 7570,
      "yes": 7571,
      "ĠAny": 7572,
      "Ġnorm": 7573,
      "Ġmunic": 7574,
      "ORY": 7575,
      "Ġinstalled": 7576,
      "Ġclo": 7577,
      "Ġappearance": 7578,
      "Ġregions": 7579,
      "TIME": 7580,
      "AX": 7581,
      "ĠEv": 7582,
      "ĠEgypt": 7583,
      "orrow": 7584,
      "aight": 7585,
      "iger": 7586,
      "fff": 7587,
      "rt": 7588,
      "Ġrank": 7589,
      "possible": 7590,
      "Full": 7591,
      "(\"(": 7592,
      "rame": 7593,
      "ĠJose": 7594,
      "Ġextract": 7595,
      "present": 7596,
      "Ġpark": 7597,
      "Ġreality": 7598,
      "about": 7599,
      "SM": 7600,
      "yy": 7601,
      "Ġreports": 7602,
      "Ġprofile": 7603,
      "iments": 7604,
      "Ġadults": 7605,
      "Ġprev": 7606,
      "à®": 7607,
      "Ġmeeting": 7608,
      "CLUDING": 7609,
      "ĠBecause": 7610,
      "pective": 7611,
      "stone": 7612,
      "ircraft": 7613,
      "Ġchance": 7614,
      "ĠBE": 7615,
      "Ġbelief": 7616,
      "Ġreligion": 7617,
      "Ġvariables": 7618,
      "ĠLear": 7619,
      "variable": 7620,
      "fire": 7621,
      "ga": 7622,
      "getValue": 7623,
      "Ġhel": 7624,
      "ITE": 7625,
      "Ġvirus": 7626,
      "2014": 7627,
      "Ġpool": 7628,
      "Ġ500": 7629,
      "Ġgirl": 7630,
      "Ġmist": 7631,
      "Å¡": 7632,
      "Ġ'<": 7633,
      "ĠSmith": 7634,
      "ictor": 7635,
      "ĠLine": 7636,
      "Äģ": 7637,
      "ĠBi": 7638,
      "Ġheaders": 7639,
      "Ġgather": 7640,
      "original": 7641,
      "ĠUSE": 7642,
      "login": 7643,
      "Ġspect": 7644,
      "Ġupdated": 7645,
      "ĠGrand": 7646,
      "dc": 7647,
      "ĠGold": 7648,
      "Mapping": 7649,
      "Ġpriv": 7650,
      "Ġemotion": 7651,
      "ests": 7652,
      "ctrine": 7653,
      "Ġwaste": 7654,
      "Ġmys": 7655,
      "Ġguide": 7656,
      "signature": 7657,
      "video": 7658,
      "ĠNAME": 7659,
      "Ġtasks": 7660,
      "XML": 7661,
      "ifdef": 7662,
      "Ġremaining": 7663,
      "IVE": 7664,
      "->_": 7665,
      "ynamic": 7666,
      "Arr": 7667,
      "picker": 7668,
      "reshold": 7669,
      "ĠIndex": 7670,
      "Route": 7671,
      "mir": 7672,
      "eq": 7673,
      "Ġprovider": 7674,
      "Security": 7675,
      "prec": 7676,
      "Arch": 7677,
      "bits": 7678,
      "triev": 7679,
      "keyword": 7680,
      "Ġpal": 7681,
      "inv": 7682,
      "LECT": 7683,
      "\"><!--": 7684,
      "Ġgain": 7685,
      "Ġ64": 7686,
      "WN": 7687,
      "Ġeating": 7688,
      "erial": 7689,
      "Ġsin": 7690,
      "structions": 7691,
      "Users": 7692,
      "plugin": 7693,
      "Ġadjust": 7694,
      "Rest": 7695,
      "rier": 7696,
      "scss": 7697,
      "Ġlearned": 7698,
      "Ġpair": 7699,
      "Ġspan": 7700,
      "ĠInteger": 7701,
      "Ġ).": 7702,
      "stat": 7703,
      "ishes": 7704,
      "undefined": 7705,
      "Ġoriginally": 7706,
      "Ġintended": 7707,
      "ocker": 7708,
      "Domain": 7709,
      "ĠItalian": 7710,
      "EC": 7711,
      "Ġteams": 7712,
      "zen": 7713,
      "Ġeconomy": 7714,
      "Ġrecommend": 7715,
      "Ġresulting": 7716,
      "crete": 7717,
      "ancing": 7718,
      "iller": 7719,
      "Ġui": 7720,
      "eval": 7721,
      "Ġfuel": 7722,
      "00000000": 7723,
      "elem": 7724,
      "mosp": 7725,
      "tools": 7726,
      "scape": 7727,
      "Ġiron": 7728,
      "Ġinh": 7729,
      "Ġ\"<": 7730,
      "...</": 7731,
      "ository": 7732,
      "READ": 7733,
      "Ø±": 7734,
      "ĠRad": 7735,
      "Prefix": 7736,
      "Cloud": 7737,
      "Ġmeant": 7738,
      "ĠAward": 7739,
      "ĠWil": 7740,
      "ĠRussian": 7741,
      "iced": 7742,
      "Ġprepar": 7743,
      "Ãł": 7744,
      "Ġenh": 7745,
      "Ġintr": 7746,
      "OB": 7747,
      "ĠTown": 7748,
      "ĠCarol": 7749,
      "eek": 7750,
      "transition": 7751,
      "LOCK": 7752,
      "Ġbind": 7753,
      "ĠSur": 7754,
      "quis": 7755,
      "called": 7756,
      "ja": 7757,
      "Ġinner": 7758,
      "Ġaccepted": 7759,
      "Password": 7760,
      "Ġ1997": 7761,
      "how": 7762,
      "Ġcontem": 7763,
      "flex": 7764,
      "ĠScott": 7765,
      "wer": 7766,
      "ĠTw": 7767,
      "Ġdetermined": 7768,
      "rev": 7769,
      "ters": 7770,
      "Ġmeasures": 7771,
      "Ġnotes": 7772,
      "itz": 7773,
      "ĠTom": 7774,
      "Ġhydro": 7775,
      "Ġ70": 7776,
      "caption": 7777,
      "bu": 7778,
      "Ġfruit": 7779,
      "Ġproperly": 7780,
      "horizontal": 7781,
      "anging": 7782,
      "Ġproxy": 7783,
      "license": 7784,
      "Ġsurg": 7785,
      "Ġapproximately": 7786,
      "Don": 7787,
      "Ġreader": 7788,
      "ĠKingdom": 7789,
      "Directory": 7790,
      "Ġ300": 7791,
      "Runtime": 7792,
      "ĠCall": 7793,
      "ĠDO": 7794,
      "Ġpromise": 7795,
      "irmed": 7796,
      "Ġexplan": 7797,
      "Ġbright": 7798,
      "ĠCast": 7799,
      "Ġ1970": 7800,
      "Ġflags": 7801,
      "itis": 7802,
      "factory": 7803,
      "Ġunivers": 7804,
      "Ġoffered": 7805,
      "href": 7806,
      "ĠAv": 7807,
      "checkbox": 7808,
      "ĠCamp": 7809,
      "ĠStep": 7810,
      "Ġphase": 7811,
      "Ġruns": 7812,
      "ĠĠĠĠĠĠĠĠĠĠĠĠĠĠĊ": 7813,
      "mi": 7814,
      "Ġexports": 7815,
      "erman": 7816,
      "bserv": 7817,
      "Ġ[\"": 7818,
      "Ġsplit": 7819,
      "ĠSun": 7820,
      "ker": 7821,
      "straints": 7822,
      "ĠAtl": 7823,
      "Pattern": 7824,
      "Ġtit": 7825,
      "Ġlif": 7826,
      "Ġaim": 7827,
      "Ġmetal": 7828,
      "LS": 7829,
      "Ġbranch": 7830,
      "Role": 7831,
      "Database": 7832,
      "Ġarms": 7833,
      "/\"": 7834,
      "ĠVis": 7835,
      "Ġorganizations": 7836,
      "NEXT": 7837,
      "pid": 7838,
      "iki": 7839,
      "shal": 7840,
      "Ġdifferences": 7841,
      "ĠSH": 7842,
      "Ġnorthern": 7843,
      "lig": 7844,
      "rate": 7845,
      "ĠFlorida": 7846,
      "uplic": 7847,
      "Ġmostly": 7848,
      "random": 7849,
      "Ġsouthern": 7850,
      "storage": 7851,
      "execute": 7852,
      "ĠOption": 7853,
      "dim": 7854,
      "Ġfellow": 7855,
      "Ġguid": 7856,
      "Ġadvanced": 7857,
      "ĠTR": 7858,
      "Ġeveryone": 7859,
      "=\"\"": 7860,
      "ĠAction": 7861,
      "Len": 7862,
      "æľī": 7863,
      "Space": 7864,
      "Ġderived": 7865,
      "ita": 7866,
      "isl": 7867,
      "Ġindeed": 7868,
      "Ġcommit": 7869,
      "checked": 7870,
      "Simple": 7871,
      "Ġsen": 7872,
      "olf": 7873,
      ";,": 7874,
      "Ġinteger": 7875,
      "Engine": 7876,
      "role": 7877,
      "abetes": 7878,
      "Ġwish": 7879,
      "Ġscore": 7880,
      "Del": 7881,
      "Volume": 7882,
      "Ġidentity": 7883,
      "Ġconsc": 7884,
      ".\");": 7885,
      "ĠBig": 7886,
      "Ġleader": 7887,
      "ategories": 7888,
      "symbol": 7889,
      "Ġgone": 7890,
      "INS": 7891,
      "Ġ×": 7892,
      "istration": 7893,
      "tre": 7894,
      "Ġexistence": 7895,
      "night": 7896,
      "sup": 7897,
      "ji": 7898,
      "Ġusage": 7899,
      "Ġaf": 7900,
      "andra": 7901,
      "Ġgun": 7902,
      "ĠTV": 7903,
      "ression": 7904,
      "Selection": 7905,
      "IST": 7906,
      "front": 7907,
      "Ġyouth": 7908,
      "inf": 7909,
      "ĠRegister": 7910,
      "Cor": 7911,
      "zone": 7912,
      "ĠSU": 7913,
      "Ġtreated": 7914,
      "ĠIreland": 7915,
      "ĠEngine": 7916,
      "Member": 7917,
      "osh": 7918,
      "2016": 7919,
      "wild": 7920,
      "Ġ=======": 7921,
      "Ġnoted": 7922,
      "ĠHam": 7923,
      "onym": 7924,
      "ĠDNA": 7925,
      "ìĿ": 7926,
      "Ġbodies": 7927,
      "Ġfollows": 7928,
      "Ġtried": 7929,
      "\"],": 7930,
      "Ġ35": 7931,
      "Ġcitizens": 7932,
      "jpg": 7933,
      "Ġqueue": 7934,
      "Ġkm": 7935,
      "nic": 7936,
      "Ġpurs": 7937,
      "Desc": 7938,
      "gest": 7939,
      "Ġanyone": 7940,
      "Nodes": 7941,
      "exists": 7942,
      "ĠLL": 7943,
      "Cred": 7944,
      "Ġpun": 7945,
      "Ġmarked": 7946,
      "Ġplanet": 7947,
      "=-": 7948,
      "123": 7949,
      "Ġbreath": 7950,
      "Author": 7951,
      "~~~~": 7952,
      "ĉĉĉĉĉĉĉĉĉĉĉĉĉ": 7953,
      "ĠVirginia": 7954,
      "Ġremote": 7955,
      "Ġ];": 7956,
      "Ġleaving": 7957,
      "Ġdriver": 7958,
      "ĠInformation": 7959,
      "Ġscene": 7960,
      "uan": 7961,
      "ĉĉĠĠĠ": 7962,
      "usform": 7963,
      "numerusform": 7964,
      "HR": 7965,
      "TY": 7966,
      "Ġfactory": 7967,
      "CHECK": 7968,
      "Ġsongs": 7969,
      "Layer": 7970,
      "Ġplans": 7971,
      "RECT": 7972,
      "Ġ\"$": 7973,
      "Ġfrequently": 7974,
      "ensus": 7975,
      "ĠCommission": 7976,
      "ĠIL": 7977,
      "defined": 7978,
      "Ġelim": 7979,
      "Ġdelay": 7980,
      "Ġvess": 7981,
      "REG": 7982,
      "Ġsell": 7983,
      "FC": 7984,
      "Ġsegment": 7985,
      "Ġefficient": 7986,
      "warning": 7987,
      "ĠDA": 7988,
      "shire": 7989,
      "ĠCONTR": 7990,
      "ima": 7991,
      "Ġdict": 7992,
      "POST": 7993,
      "VERSION": 7994,
      "pa": 7995,
      "ĠJews": 7996,
      "Ġreferred": 7997,
      "ĠRichard": 7998,
      "Ġdownload": 7999,
      "Ġopening": 8000,
      "iated": 8001,
      "awn": 8002,
      "ĠBritain": 8003,
      "umes": 8004,
      "Ġconducted": 8005,
      "Ġfee": 8006,
      "Ġprefix": 8007,
      "ailing": 8008,
      "Gen": 8009,
      "ĠMiddle": 8010,
      "ĠPo": 8011,
      "Te": 8012,
      "Ġsoft": 8013,
      "ĠBit": 8014,
      "ulf": 8015,
      "ky": 8016,
      ")\"));": 8017,
      "ifndef": 8018,
      "ĠTable": 8019,
      "Ġsigns": 8020,
      "Ġsand": 8021,
      "Ġ1996": 8022,
      "Ġexactly": 8023,
      "ĠEnvironment": 8024,
      "BE": 8025,
      "FS": 8026,
      "itors": 8027,
      "Ġviews": 8028,
      "Public": 8029,
      "ogen": 8030,
      "Java": 8031,
      "æł": 8032,
      "Ġcharset": 8033,
      "views": 8034,
      "CESS": 8035,
      "Ġboy": 8036,
      ";\"": 8037,
      "Grid": 8038,
      "Ġsomew": 8039,
      "Ġspeech": 8040,
      "Ġfit": 8041,
      "Ġmath": 8042,
      "TS": 8043,
      "ĠLin": 8044,
      "Ġë": 8045,
      "ĉĉĉĉĉĉĉĉĉĉĉĉ": 8046,
      "'}": 8047,
      "Comple": 8048,
      "mutable": 8049,
      "annels": 8050,
      "Ġprops": 8051,
      "CTYPE": 8052,
      "ĠLOG": 8053,
      "Ġlanguages": 8054,
      "Ġmenu": 8055,
      "Bean": 8056,
      "ilters": 8057,
      "Pay": 8058,
      "Pop": 8059,
      "oned": 8060,
      "()))": 8061,
      "Ġalternative": 8062,
      "bel": 8063,
      "ä¸į": 8064,
      "Ġhelped": 8065,
      "ĉĉĉĉĉĉĉĉĉĉ": 8066,
      "ĠEmp": 8067,
      "PATH": 8068,
      "ĠExec": 8069,
      "atever": 8070,
      "Ġconstructor": 8071,
      "services": 8072,
      "Ġnullptr": 8073,
      "Ġdrugs": 8074,
      "atible": 8075,
      "ĠPenn": 8076,
      "Ġrelatively": 8077,
      "IconSuccess": 8078,
      "ÃĲ": 8079,
      "attributes": 8080,
      "hether": 8081,
      "Ġseconds": 8082,
      "ĠWill": 8083,
      "Ġprepared": 8084,
      "anes": 8085,
      "Ġhighlight": 8086,
      "TestCase": 8087,
      "logger": 8088,
      "JECT": 8089,
      "Ġflood": 8090,
      "Ġtherapy": 8091,
      "Children": 8092,
      "username": 8093,
      "Ġgarden": 8094,
      "Ġforth": 8095,
      "ĠSou": 8096,
      ".[": 8097,
      "Ġcry": 8098,
      "Ġhus": 8099,
      "navList": 8100,
      "Ġbow": 8101,
      "ĠMexico": 8102,
      "clean": 8103,
      "Ġminimum": 8104,
      "Ġscroll": 8105,
      "Ġtradition": 8106,
      "Ġextended": 8107,
      "IDTH": 8108,
      "Ġforeach": 8109,
      "eners": 8110,
      "Ġauthority": 8111,
      "detail": 8112,
      "ĠLIC": 8113,
      "Ġbuy": 8114,
      "IconSuccessEncoded": 8115,
      "ORS": 8116,
      "Feature": 8117,
      "Ġbreast": 8118,
      "Ġdisabled": 8119,
      "Ġren": 8120,
      "ĠChicago": 8121,
      "Ġliterature": 8122,
      "TA": 8123,
      "invalid": 8124,
      "erate": 8125,
      "Ġsumm": 8126,
      "Ġstock": 8127,
      "Ġpull": 8128,
      "Ġhospital": 8129,
      "Ġtimeout": 8130,
      "ï¼ļ": 8131,
      "Ġgirls": 8132,
      "Ġstraight": 8133,
      "ĠLibrary": 8134,
      "Ġdir": 8135,
      "Trace": 8136,
      "Math": 8137,
      "å¾": 8138,
      "ĠassertEqual": 8139,
      "Ġfeeling": 8140,
      "ĠMel": 8141,
      "Ġhorse": 8142,
      "teen": 8143,
      "cpu": 8144,
      "ĠrunQuery": 8145,
      "'];": 8146,
      "ĠPers": 8147,
      "Ġenv": 8148,
      "asy": 8149,
      "ĠMain": 8150,
      "gers": 8151,
      "åľ¨": 8152,
      "Ġalloc": 8153,
      "More": 8154,
      "Ġstrings": 8155,
      "Ġpoly": 8156,
      "Ġvs": 8157,
      "pository": 8158,
      "some": 8159,
      "Duration": 8160,
      "rim": 8161,
      "peat": 8162,
      "anta": 8163,
      "issues": 8164,
      "Ġoptional": 8165,
      "Ġrecommended": 8166,
      "ĠJud": 8167,
      "Ġmixed": 8168,
      "acific": 8169,
      "ĠCommon": 8170,
      "Ġfell": 8171,
      "Ġfloor": 8172,
      "ä¸Ń": 8173,
      "Ã³n": 8174,
      "Ġcloud": 8175,
      "ĠAust": 8176,
      "Generator": 8177,
      "Ġris": 8178,
      "Ġlic": 8179,
      "Ġeffic": 8180,
      "Ġwire": 8181,
      "TEXT": 8182,
      "ĠXML": 8183,
      "Ġbrief": 8184,
      "LP": 8185,
      "osa": 8186,
      "decl": 8187,
      "ny": 8188,
      "essions": 8189,
      "Ġshut": 8190,
      "Ġsubstant": 8191,
      "Ġemb": 8192,
      "Ð´": 8193,
      "Ġcollabor": 8194,
      "ĠPower": 8195,
      "Activity": 8196,
      "Ġrequests": 8197,
      "Ġproposed": 8198,
      "SU": 8199,
      "Ġlang": 8200,
      "utch": 8201,
      "unte": 8202,
      "VALUE": 8203,
      "During": 8204,
      "Interval": 8205,
      "ipped": 8206,
      "Category": 8207,
      "socket": 8208,
      "Ġease": 8209,
      "report": 8210,
      "Ġcro": 8211,
      "Ġnavigation": 8212,
      "iro": 8213,
      "slice": 8214,
      "ĠItaly": 8215,
      "ĠLICENSE": 8216,
      "ĠRights": 8217,
      "Ġrepresentation": 8218,
      "Ġinvent": 8219,
      "Ġrepresents": 8220,
      "Ġult": 8221,
      "RPC": 8222,
      "bur": 8223,
      "cluding": 8224,
      "diff": 8225,
      "Ġleaders": 8226,
      "ĠHTTP": 8227,
      "gradient": 8228,
      "PP": 8229,
      "Ġstated": 8230,
      "Ġ1995": 8231,
      "console": 8232,
      "ĠRetriev": 8233,
      "ĠDevelopment": 8234,
      "Ġisol": 8235,
      "ĠLand": 8236,
      "ISE": 8237,
      "ðŁ": 8238,
      "ĠArab": 8239,
      ".]": 8240,
      "Ġdrive": 8241,
      "Ġexecute": 8242,
      "ĠDivision": 8243,
      "2013": 8244,
      "Ġsuccessfully": 8245,
      "Ġeducational": 8246,
      "Ġclock": 8247,
      "Identifier": 8248,
      "Ã¦": 8249,
      "Ġcontents": 8250,
      "ĠRequest": 8251,
      "Person": 8252,
      "kt": 8253,
      "Ġpolice": 8254,
      "Ġwarning": 8255,
      "METH": 8256,
      "println": 8257,
      "Ġce": 8258,
      "ivation": 8259,
      "Ġcalling": 8260,
      "Ġmedium": 8261,
      "Ġrect": 8262,
      "aped": 8263,
      "ALSE": 8264,
      "Ġdiss": 8265,
      "Uri": 8266,
      "ĠBet": 8267,
      "iteral": 8268,
      "anner": 8269,
      "Ġsudden": 8270,
      "ĠWell": 8271,
      "ugh": 8272,
      "Ġpromote": 8273,
      "Ġcontrast": 8274,
      "Registry": 8275,
      "DOCTYPE": 8276,
      "Generated": 8277,
      "Ġappointed": 8278,
      "ĠDom": 8279,
      "Ġbillion": 8280,
      "Ġcluster": 8281,
      "Ġ_,": 8282,
      "dp": 8283,
      "å¯": 8284,
      "ĠassertThat": 8285,
      "inates": 8286,
      "Ġcritic": 8287,
      "Ġpul": 8288,
      "direct": 8289,
      "utral": 8290,
      "Ġlinear": 8291,
      "Ġappend": 8292,
      "Ġannual": 8293,
      "Ax": 8294,
      "Ġwarn": 8295,
      "URI": 8296,
      "builder": 8297,
      "Ġresistance": 8298,
      "Ġpurposes": 8299,
      "ĠBill": 8300,
      "ĠImage": 8301,
      "SCRIPT": 8302,
      "going": 8303,
      "Ġstone": 8304,
      "Ġcombined": 8305,
      "DOM": 8306,
      "rich": 8307,
      "ĠLatin": 8308,
      "Ġadvantage": 8309,
      "ĠChe": 8310,
      "thlet": 8311,
      "ĠPoint": 8312,
      "Ã£": 8313,
      "ĠValid": 8314,
      "Db": 8315,
      "ĠMo": 8316,
      "azine": 8317,
      "Ġhuge": 8318,
      "á»": 8319,
      "2011": 8320,
      "glyphicon": 8321,
      "allery": 8322,
      "Generic": 8323,
      "Ġauthors": 8324,
      "ĠTop": 8325,
      "Sql": 8326,
      "ĠMicrosoft": 8327,
      "Ġyellow": 8328,
      "Ġaid": 8329,
      "ocial": 8330,
      "cdn": 8331,
      "Ġbaby": 8332,
      "Ġsufficient": 8333,
      "mouse": 8334,
      "2006": 8335,
      "since": 8336,
      "Ġexcess": 8337,
      "Elements": 8338,
      "oured": 8339,
      "peror": 8340,
      "ĠIMP": 8341,
      "Delegate": 8342,
      "ambda": 8343,
      "Ġcolumns": 8344,
      "hl": 8345,
      "ç½": 8346,
      "extend": 8347,
      "Ġmotor": 8348,
      "achment": 8349,
      "%\"": 8350,
      "HS": 8351,
      "rg": 8352,
      "ĠStatus": 8353,
      "Material": 8354,
      "super": 8355,
      "oviet": 8356,
      "ĉĉĉĊ": 8357,
      "\"\"\"": 8358,
      "Ġschema": 8359,
      "oves": 8360,
      "Ġlinked": 8361,
      "Endpoint": 8362,
      "idential": 8363,
      "allclasses": 8364,
      "Ġboost": 8365,
      "Wait": 8366,
      "nil": 8367,
      "ĠInitial": 8368,
      "ologist": 8369,
      "Ġlisted": 8370,
      "Ġexplain": 8371,
      "ĠEli": 8372,
      "MMMMMMMMMMMMMMMM": 8373,
      "Ġcycle": 8374,
      "ifically": 8375,
      "mo": 8376,
      "ni": 8377,
      "BAR": 8378,
      "anda": 8379,
      "EEEE": 8380,
      "Ġachieve": 8381,
      "ĠWhy": 8382,
      ".\",": 8383,
      "Play": 8384,
      "High": 8385,
      "ĠMessage": 8386,
      "record": 8387,
      "orough": 8388,
      "llegal": 8389,
      "Ne": 8390,
      "Why": 8391,
      "othes": 8392,
      "Ġfmt": 8393,
      "ĠSpec": 8394,
      "Ġsquare": 8395,
      "enabled": 8396,
      "istan": 8397,
      "Ġmetadata": 8398,
      "Ġvertical": 8399,
      "nel": 8400,
      "iliar": 8401,
      "Ġmodified": 8402,
      "Span": 8403,
      "Ġpretty": 8404,
      "ĠResource": 8405,
      "Term": 8406,
      "ĠHuman": 8407,
      "Ġabsor": 8408,
      "Ġexposure": 8409,
      "Ġdirected": 8410,
      "istribution": 8411,
      "Book": 8412,
      "kins": 8413,
      "Ġcombination": 8414,
      "Opt": 8415,
      "ĠProcess": 8416,
      "Ġchanging": 8417,
      "Ġnuclear": 8418,
      "Ġmiss": 8419,
      "timeout": 8420,
      "CF": 8421,
      "Ġhousehold": 8422,
      "utor": 8423,
      "Ġstim": 8424,
      "éĩ": 8425,
      "ĠScot": 8426,
      ":(": 8427,
      "oked": 8428,
      "aming": 8429,
      "chain": 8430,
      "ĠRail": 8431,
      "Ġvary": 8432,
      "ĠAsia": 8433,
      "Ġconsists": 8434,
      "Ġvari": 8435,
      "platform": 8436,
      "ocratic": 8437,
      "entle": 8438,
      "igan": 8439,
      "ashion": 8440,
      "Ġurban": 8441,
      "Ġinstruction": 8442,
      "Ġrepresented": 8443,
      "Car": 8444,
      "ĠFort": 8445,
      "IBUT": 8446,
      "zip": 8447,
      "gov": 8448,
      "Ġcategory": 8449,
      "ĠMax": 8450,
      "Ġconflict": 8451,
      "MODE": 8452,
      "************************************************************************": 8453,
      "will": 8454,
      "imize": 8455,
      "Import": 8456,
      "ben": 8457,
      "Ġfirm": 8458,
      "ĠInternet": 8459,
      "Ġsusp": 8460,
      "icient": 8461,
      "Ġhers": 8462,
      "ĠSpain": 8463,
      "clusive": 8464,
      "good": 8465,
      "axis": 8466,
      "ĠWindows": 8467,
      "Ġescape": 8468,
      "Ġgranted": 8469,
      "Ġbits": 8470,
      "gi": 8471,
      "Ġcomfort": 8472,
      "Collections": 8473,
      "Ġplanning": 8474,
      "Short": 8475,
      "inity": 8476,
      "ĠASSERT": 8477,
      "ĠFil": 8478,
      "ansion": 8479,
      "Symfony": 8480,
      "bridge": 8481,
      "Ġsurvey": 8482,
      "Ġeasier": 8483,
      "Ġpure": 8484,
      "According": 8485,
      "Ġemerg": 8486,
      "poly": 8487,
      "ulating": 8488,
      "Ġthousands": 8489,
      "Ġflat": 8490,
      "ĠOrgan": 8491,
      "ĠClub": 8492,
      "Ġconnections": 8493,
      "Ġelected": 8494,
      "Ġrows": 8495,
      "Ġconvers": 8496,
      "Ġresolve": 8497,
      "Ġroll": 8498,
      "Ġgene": 8499,
      "Ġexperiences": 8500,
      "Ġgrid": 8501,
      "ĠForce": 8502,
      "person": 8503,
      "Ġaircraft": 8504,
      "Section": 8505,
      "Ġobtained": 8506,
      "Ġcmd": 8507,
      "Ġdegre": 8508,
      "ĠOnce": 8509,
      "Ġlayout": 8510,
      "ourse": 8511,
      "ĠBack": 8512,
      "Ġframework": 8513,
      "Inv": 8514,
      "Ġarticles": 8515,
      "Ġstations": 8516,
      "Ġevolution": 8517,
      "ANCE": 8518,
      "Ġthousand": 8519,
      "ĠAcademy": 8520,
      "ĠFree": 8521,
      "](#": 8522,
      "Ġpieces": 8523,
      "ĠHistor": 8524,
      "Cert": 8525,
      "Ġbatter": 8526,
      "ali": 8527,
      "atics": 8528,
      "ĠGeorg": 8529,
      "fol": 8530,
      "ola": 8531,
      "Ġplugin": 8532,
      "=(": 8533,
      "Ġexpand": 8534,
      "iffer": 8535,
      "Ġwealth": 8536,
      "ading": 8537,
      "Ġdu": 8538,
      "Ġbreed": 8539,
      "Ġsalt": 8540,
      "Ġ1960": 8541,
      "bd": 8542,
      "ä»¥": 8543,
      "Ġphen": 8544,
      "asm": 8545,
      "Ġincome": 8546,
      "ĠColumb": 8547,
      "Ġdegrees": 8548,
      "beta": 8549,
      "YY": 8550,
      "2010": 8551,
      "ellect": 8552,
      "Ġtwenty": 8553,
      "Ġmarriage": 8554,
      "channel": 8555,
      "Own": 8556,
      "Ġmouse": 8557,
      "ampl": 8558,
      "ulator": 8559,
      "ivery": 8560,
      "ĠRecords": 8561,
      "ĠCap": 8562,
      "tered": 8563,
      "ipher": 8564,
      "Ġstrategy": 8565,
      "Ġbegins": 8566,
      "Abstract": 8567,
      "bling": 8568,
      "Ġdeclared": 8569,
      "users": 8570,
      "Ġfinding": 8571,
      "Ġtaught": 8572,
      "Ġexplicit": 8573,
      "128": 8574,
      "fix": 8575,
      "ĠElement": 8576,
      "ĠLIMIT": 8577,
      "________": 8578,
      "PUT": 8579,
      "nodes": 8580,
      "async": 8581,
      "ushed": 8582,
      "METHOD": 8583,
      "Ġincorpor": 8584,
      "Ġwidely": 8585,
      "Ġsummary": 8586,
      "Ġtox": 8587,
      "Ġfilled": 8588,
      "Word": 8589,
      "Ġalcohol": 8590,
      "Ġadvance": 8591,
      "ĠEvery": 8592,
      "objects": 8593,
      "Ġpregn": 8594,
      "ĠRussia": 8595,
      "Ġkill": 8596,
      "onic": 8597,
      "ĠPlan": 8598,
      "Ġclearly": 8599,
      "Ã±": 8600,
      "Ġlooks": 8601,
      "Ġextremely": 8602,
      "deg": 8603,
      "Ġamb": 8604,
      "Ġversions": 8605,
      "Ð¼": 8606,
      "ĠChildren": 8607,
      "UTF": 8608,
      "ÑĮ": 8609,
      "Tx": 8610,
      "Ġimmune": 8611,
      "Selected": 8612,
      "Ġtill": 8613,
      "Ġpanel": 8614,
      "ummer": 8615,
      "Ġmodify": 8616,
      "ollowing": 8617,
      "Repository": 8618,
      "Ġprotocol": 8619,
      "fortun": 8620,
      "astr": 8621,
      "<<": 8622,
      "unique": 8623,
      "amel": 8624,
      "war": 8625,
      "Here": 8626,
      "Ġ75": 8627,
      "Ġestimated": 8628,
      "Ġatmosp": 8629,
      "ĠVictor": 8630,
      "Ġ45": 8631,
      "visible": 8632,
      "feature": 8633,
      "Ġretriev": 8634,
      "Ġportion": 8635,
      "pi": 8636,
      "Ġinjury": 8637,
      "Ġagree": 8638,
      "itar": 8639,
      "Ġinfr": 8640,
      "ĠPage": 8641,
      "Ġadding": 8642,
      "Ġfreedom": 8643,
      "ĠIsl": 8644,
      "Headers": 8645,
      "reme": 8646,
      "TRUE": 8647,
      "Ġpil": 8648,
      "Ġcredit": 8649,
      "/\">": 8650,
      "Ġcausing": 8651,
      "Ġlogger": 8652,
      "operation": 8653,
      "Ġagent": 8654,
      "Ġfurn": 8655,
      "Ġselector": 8656,
      "Ġallowing": 8657,
      "Ġgenetic": 8658,
      "acro": 8659,
      "Ġcentre": 8660,
      "Ġshowing": 8661,
      "identifier": 8662,
      "Help": 8663,
      "Year": 8664,
      "province": 8665,
      "Ġmir": 8666,
      "owner": 8667,
      "Ġdepth": 8668,
      "junit": 8669,
      "esome": 8670,
      "Ġsetup": 8671,
      "Ġast": 8672,
      "Ġwriters": 8673,
      "Ġexposed": 8674,
      "Ġhouses": 8675,
      "(\"#": 8676,
      "Admin": 8677,
      "Ġsignificantly": 8678,
      "napshot": 8679,
      "Ġsed": 8680,
      "Ġdivided": 8681,
      "ĠCivil": 8682,
      "ĠConf": 8683,
      "Ġexecution": 8684,
      "Foot": 8685,
      "Ġsaved": 8686,
      "agers": 8687,
      "REQ": 8688,
      "Ġmainly": 8689,
      "failed": 8690,
      "VALID": 8691,
      "Ġmel": 8692,
      "Ġindustrial": 8693,
      "Ġemissions": 8694,
      "canvas": 8695,
      "arant": 8696,
      "Ġmotion": 8697,
      "Ġlatest": 8698,
      "ĠCOP": 8699,
      "Ġ1994": 8700,
      "Visible": 8701,
      "ĠMIT": 8702,
      "archy": 8703,
      "DT": 8704,
      "ĠSpr": 8705,
      "Ġperman": 8706,
      "atters": 8707,
      "BS": 8708,
      "pare": 8709,
      "ĠMedic": 8710,
      "Details": 8711,
      "uuid": 8712,
      "Ġsupports": 8713,
      "Ġbroken": 8714,
      "Find": 8715,
      "Namespace": 8716,
      "Ġbond": 8717,
      "ĠFoot": 8718,
      "ĠTherefore": 8719,
      "Ġvision": 8720,
      "Ġ'',": 8721,
      "Ġhappened": 8722,
      "Ġ\"#": 8723,
      "ati": 8724,
      "assembly": 8725,
      "fx": 8726,
      "ĠAnn": 8727,
      "ĠGood": 8728,
      "Ġdepending": 8729,
      "ĠIII": 8730,
      "ĠArrayList": 8731,
      "RIGHT": 8732,
      "ĠCapt": 8733,
      "Ġopportunities": 8734,
      "Ġ\"\";": 8735,
      "ĠFin": 8736,
      "Ġparser": 8737,
      "Ġillness": 8738,
      "ĠNews": 8739,
      "vol": 8740,
      "ĠMult": 8741,
      "udo": 8742,
      "Ġsoldiers": 8743,
      "ribute": 8744,
      "Ġmach": 8745,
      "Ġ2021": 8746,
      "kin": 8747,
      "ĠDen": 8748,
      "blog": 8749,
      "Sync": 8750,
      "ĠUI": 8751,
      "MIN": 8752,
      "avor": 8753,
      "Batch": 8754,
      "Ġonto": 8755,
      "eper": 8756,
      "ĠBoth": 8757,
      "ĠIrish": 8758,
      "Ġincreases": 8759,
      "ĠEND": 8760,
      "Ġinterested": 8761,
      "Ġran": 8762,
      "\\+": 8763,
      "properties": 8764,
      "boost": 8765,
      "Ġindicate": 8766,
      "Ġdream": 8767,
      "Div": 8768,
      "Ġnom": 8769,
      "Returns": 8770,
      "ĠRock": 8771,
      "Ġarrived": 8772,
      "typedef": 8773,
      "Ear": 8774,
      "ĠNetwork": 8775,
      "Ġsubstantial": 8776,
      "æ³": 8777,
      "ĠPack": 8778,
      "ĠBas": 8779,
      "Statement": 8780,
      "Ġprofessor": 8781,
      "Ġopinion": 8782,
      "gar": 8783,
      "........": 8784,
      "Operand": 8785,
      "Ġstood": 8786,
      "Subs": 8787,
      "Comment": 8788,
      "ivalent": 8789,
      "Ġcolors": 8790,
      "vin": 8791,
      "Ġemphas": 8792,
      "lik": 8793,
      "chor": 8794,
      "Lower": 8795,
      "2007": 8796,
      "encing": 8797,
      "pkg": 8798,
      "Ġapparent": 8799,
      "ĠMusic": 8800,
      "ĠEmpire": 8801,
      "rid": 8802,
      "sheet": 8803,
      "ourney": 8804,
      "Ġhappens": 8805,
      "Ġfif": 8806,
      "ÙĨ": 8807,
      "Ġsides": 8808,
      "ĠJoseph": 8809,
      "STRING": 8810,
      "Ġinterpret": 8811,
      "ĉĠĠĠĠ": 8812,
      "Ergo": 8813,
      "itan": 8814,
      "Ġ[[": 8815,
      "ictures": 8816,
      "Ġexcell": 8817,
      "ĠFre": 8818,
      "proxy": 8819,
      "Ġthick": 8820,
      "elines": 8821,
      "ĠInput": 8822,
      "him": 8823,
      "tests": 8824,
      "ĠSpace": 8825,
      "Ġtroops": 8826,
      "Ġignore": 8827,
      "__)": 8828,
      "Ġcertainly": 8829,
      "IMP": 8830,
      "km": 8831,
      "Ġliqu": 8832,
      "Ġconvention": 8833,
      "Ġconsult": 8834,
      "ĠDAMA": 8835,
      "Ġassign": 8836,
      "Ġsuggests": 8837,
      "nergy": 8838,
      "Video": 8839,
      "ĠBlock": 8840,
      "Ġdistingu": 8841,
      "egr": 8842,
      "Ġdebug": 8843,
      "Ġmathem": 8844,
      "ĠÐ¿": 8845,
      "Ġcontroller": 8846,
      "!!": 8847,
      "sche": 8848,
      "ingly": 8849,
      "Ġinsect": 8850,
      "Ġexperiment": 8851,
      "çĽ": 8852,
      "assertTrue": 8853,
      "ĠZeal": 8854,
      "Ġviolence": 8855,
      "$$": 8856,
      "virtual": 8857,
      "asketball": 8858,
      "Spl": 8859,
      "Ġaxis": 8860,
      "IAL": 8861,
      "ko": 8862,
      "Bound": 8863,
      "Ġnutri": 8864,
      "Living": 8865,
      "Mask": 8866,
      "Sy": 8867,
      "Ġbear": 8868,
      "comple": 8869,
      "Mer": 8870,
      "Ġshot": 8871,
      "Ġstorm": 8872,
      "Ġcer": 8873,
      "ĠBUT": 8874,
      "pair": 8875,
      "iration": 8876,
      "ulum": 8877,
      "300": 8878,
      "Player": 8879,
      "Ġtsd": 8880,
      "Ġfourth": 8881,
      "Pub": 8882,
      "eve": 8883,
      "extern": 8884,
      "Ġsoul": 8885,
      "Ġended": 8886,
      "Note": 8887,
      "Ġhomes": 8888,
      "world": 8889,
      "ĠBoolean": 8890,
      "ookie": 8891,
      "Ġweap": 8892,
      "blue": 8893,
      "highlight": 8894,
      "Ġcontinues": 8895,
      "Vertex": 8896,
      "SELECT": 8897,
      "Ġautomatically": 8898,
      "Cap": 8899,
      "Ġwestern": 8900,
      "uma": 8901,
      "ĠElect": 8902,
      "construct": 8903,
      "driver": 8904,
      "Att": 8905,
      "(/": 8906,
      "ĠBur": 8907,
      "Ġtd": 8908,
      "ĠSuper": 8909,
      "helper": 8910,
      "fast": 8911,
      "Ġdrag": 8912,
      "Ġnewsp": 8913,
      "Cre": 8914,
      "ĠHill": 8915,
      "Ġmoral": 8916,
      "ĠDar": 8917,
      "LIED": 8918,
      "Ġneighbor": 8919,
      "Ġhun": 8920,
      "cest": 8921,
      "urance": 8922,
      "uations": 8923,
      "Enum": 8924,
      "Ġdivision": 8925,
      "ĠTechnology": 8926,
      "Ġmyst": 8927,
      "Ġ``": 8928,
      "ais": 8929,
      "ĠDocument": 8930,
      "Ġinnov": 8931,
      "ĠHttp": 8932,
      "ĠLib": 8933,
      "Ġboys": 8934,
      "Ġ36": 8935,
      "estival": 8936,
      "Ġvent": 8937,
      "ĠRome": 8938,
      "zure": 8939,
      "ieties": 8940,
      "MD": 8941,
      "ĠZealand": 8942,
      "Ġtrial": 8943,
      "Ġchallenges": 8944,
      "ses": 8945,
      "Ġ_.": 8946,
      "inherit": 8947,
      "rum": 8948,
      "verter": 8949,
      "Ġspot": 8950,
      "parser": 8951,
      "Ġsamples": 8952,
      "people": 8953,
      "Ġrecover": 8954,
      "Ġentirely": 8955,
      "Ġhusband": 8956,
      "Once": 8957,
      "dem": 8958,
      "ĠBest": 8959,
      "udget": 8960,
      "Äį": 8961,
      "Ġcoq": 8962,
      "DEBUG": 8963,
      "Ġattached": 8964,
      "pm": 8965,
      "volume": 8966,
      "plus": 8967,
      "Ġdepends": 8968,
      "Ġprinciples": 8969,
      "iveness": 8970,
      ")\",": 8971,
      "wd": 8972,
      "Ġmanaged": 8973,
      "Ð²": 8974,
      "Ġcompre": 8975,
      "fb": 8976,
      "izable": 8977,
      "ĠHaw": 8978,
      "æĿ": 8979,
      "apos": 8980,
      "Ġcompare": 8981,
      "Ġinstitutions": 8982,
      "Ġthrown": 8983,
      "Conn": 8984,
      "![": 8985,
      "Ġexchange": 8986,
      "fall": 8987,
      "Ġwalls": 8988,
      "Resources": 8989,
      "Ġconsumption": 8990,
      "Ġrepeated": 8991,
      "asp": 8992,
      "Ġassigned": 8993,
      "ĠSea": 8994,
      "Ġsecure": 8995,
      "accept": 8996,
      "igure": 8997,
      "Ġ'';": 8998,
      "Ġelif": 8999,
      "they": 9000,
      "iah": 9001,
      "Ġindicates": 9002,
      "Protocol": 9003,
      "EEEEFF": 9004,
      "Ġclim": 9005,
      "dig": 9006,
      "Ġsys": 9007,
      "ĠGets": 9008,
      "Ġtrav": 9009,
      "ĠFinal": 9010,
      "Ġchallenge": 9011,
      "Ġmigr": 9012,
      "Ġmyself": 9013,
      "åĨ": 9014,
      "enable": 9015,
      "Ġbone": 9016,
      "Ġdesired": 9017,
      "Ġ1992": 9018,
      "Then": 9019,
      "Ġcontained": 9020,
      "xygen": 9021,
      "alert": 9022,
      "Med": 9023,
      "Stats": 9024,
      "Ġstarts": 9025,
      "Ġbes": 9026,
      "erty": 9027,
      "Ġmanage": 9028,
      "åĩ": 9029,
      "atre": 9030,
      "ĠFire": 9031,
      "spacing": 9032,
      "Ġshell": 9033,
      "PU": 9034,
      "parator": 9035,
      "constructor": 9036,
      "Ġdisorder": 9037,
      "vania": 9038,
      "ĠCA": 9039,
      "Ġsilver": 9040,
      "Ġtemple": 9041,
      "Ġgreatest": 9042,
      "Ġrecognized": 9043,
      "ups": 9044,
      "Progress": 9045,
      "Ġtypename": 9046,
      "Ġdogs": 9047,
      "ĠPacific": 9048,
      "riority": 9049,
      "ĠLIMITED": 9050,
      "ĠNE": 9051,
      "havior": 9052,
      "Ġcursor": 9053,
      "ĠSoviet": 9054,
      "agent": 9055,
      "Ġremark": 9056,
      "2017": 9057,
      "Ġextent": 9058,
      "ĠOffice": 9059,
      "Ġtheme": 9060,
      "Ġdespite": 9061,
      ":#": 9062,
      "Ġdst": 9063,
      "ĠSpe": 9064,
      "ãĢģ": 9065,
      "ocation": 9066,
      "apis": 9067,
      "Ġdress": 9068,
      "Ġ400": 9069,
      "Ġcharacteristics": 9070,
      "akers": 9071,
      "fixed": 9072,
      "Ġip": 9073,
      "Cluster": 9074,
      "ilevel": 9075,
      "ugs": 9076,
      "uzz": 9077,
      "Ġsweet": 9078,
      "Ġsan": 9079,
      "Ġherself": 9080,
      "Ġantib": 9081,
      "Ġdepart": 9082,
      "Ġhappy": 9083,
      ">../": 9084,
      "Ġvan": 9085,
      "ĠLos": 9086,
      "ĠJe": 9087,
      "xFF": 9088,
      "fit": 9089,
      "Ġye": 9090,
      "Ġacademic": 9091,
      "Bind": 9092,
      "=\\\"": 9093,
      "Mouse": 9094,
      "Ġformation": 9095,
      "azy": 9096,
      "stood": 9097,
      "COMP": 9098,
      "Ġpolicies": 9099,
      "Ġcli": 9100,
      "BB": 9101,
      "Ġcrow": 9102,
      "Ġkeeping": 9103,
      "Ġobvious": 9104,
      "Ġmerge": 9105,
      "Ġmort": 9106,
      "Ġsight": 9107,
      "sr": 9108,
      "arguments": 9109,
      "Ġenemy": 9110,
      "Ġbridge": 9111,
      "ÙĦ": 9112,
      "oking": 9113,
      "istence": 9114,
      "Ġsecondary": 9115,
      "Ġanimation": 9116,
      "Ġseeds": 9117,
      "ĠCommand": 9118,
      "Ġsql": 9119,
      "actor": 9120,
      "Ġpossess": 9121,
      "ĠĠĠĠĠĠĠĠĠĠĠĠĠĠĠĠĠĠĠĠĊ": 9122,
      "Ġskip": 9123,
      "Move": 9124,
      "Ġbatch": 9125,
      "Stat": 9126,
      "Ġ1993": 9127,
      "DateTime": 9128,
      "Ġflowers": 9129,
      "Ġdiscussion": 9130,
      "xhtml": 9131,
      "ĠSol": 9132,
      "antly": 9133,
      "Ñĭ": 9134,
      "Ġgrass": 9135,
      "Ã£o": 9136,
      ".âĢĻ": 9137,
      "Ġstudied": 9138,
      "Yes": 9139,
      "Ġtissue": 9140,
      "Ġthy": 9141,
      "Ġsuggested": 9142,
      "Drop": 9143,
      "%%%%%%%%": 9144,
      "Ġvirt": 9145,
      "contents": 9146,
      "(\"%": 9147,
      "ĠAccess": 9148,
      "Ġ48": 9149,
      "Day": 9150,
      "FORM": 9151,
      "ĠDig": 9152,
      "Ġassociation": 9153,
      "single": 9154,
      "ĠRegion": 9155,
      "Ġaspects": 9156,
      "World": 9157,
      "ĠPet": 9158,
      "venue": 9159,
      "John": 9160,
      "CB": 9161,
      "ĠVector": 9162,
      "Ġsexual": 9163,
      "Ġexplanation": 9164,
      "(\"/": 9165,
      "Ġkid": 9166,
      "Ġgoods": 9167,
      "Ġdangerous": 9168,
      "Ġvul": 9169,
      "ĠHome": 9170,
      "scene": 9171,
      "May": 9172,
      "danger": 9173,
      "Ġclaims": 9174,
      "NavBarFont": 9175,
      "chart": 9176,
      "ĠBible": 9177,
      "razil": 9178,
      "Total": 9179,
      "Ġpassing": 9180,
      "ĠSil": 9181,
      "month": 9182,
      "ĠSource": 9183,
      "Ġlistener": 9184,
      "ĠPhys": 9185,
      "CONFIG": 9186,
      "Ġdecades": 9187,
      "usal": 9188,
      "Ġoperating": 9189,
      "Ġaddresses": 9190,
      "ĠFind": 9191,
      "ĠMa": 9192,
      "oston": 9193,
      "Ġprimarily": 9194,
      "ĠStar": 9195,
      "imitive": 9196,
      "Ġmilk": 9197,
      "ĠVar": 9198,
      "aser": 9199,
      "xa": 9200,
      "SEL": 9201,
      "CONT": 9202,
      "å¹": 9203,
      "notations": 9204,
      "ĠSouthern": 9205,
      "ĠResult": 9206,
      "ĠOffic": 9207,
      "Ġtwice": 9208,
      "ĠPO": 9209,
      "variant": 9210,
      "Ġbgcolor": 9211,
      "Most": 9212,
      "Ġadmin": 9213,
      "ĠTHIS": 9214,
      "Ġ33": 9215,
      "xc": 9216,
      "Ġdestination": 9217,
      "alyt": 9218,
      "Ġelectricity": 9219,
      "Ġexperienced": 9220,
      "»¿": 9221,
      "Ġmountain": 9222,
      "Ġrub": 9223,
      "ĠLocal": 9224,
      "plates": 9225,
      "Ġsynt": 9226,
      "emic": 9227,
      "Ġships": 9228,
      "ĠDan": 9229,
      "acks": 9230,
      "Ġimpossible": 9231,
      "å½": 9232,
      "ĠYear": 9233,
      "ĠWild": 9234,
      "resolve": 9235,
      "1000": 9236,
      "(()": 9237,
      "ĠSQL": 9238,
      "Ġdestroyed": 9239,
      "Ġprepare": 9240,
      "Ġunion": 9241,
      "Sequence": 9242,
      "watch": 9243,
      "ĠCEL": 9244,
      "ĠGal": 9245,
      "Ġdiam": 9246,
      "har": 9247,
      "Ġdeleg": 9248,
      "syl": 9249,
      "destroy": 9250,
      "ĠSuch": 9251,
      "Ġguard": 9252,
      "Ġideal": 9253,
      "Install": 9254,
      "Ġsector": 9255,
      "Ġartists": 9256,
      "ĠTE": 9257,
      "Texture": 9258,
      "Ġrelevant": 9259,
      "isting": 9260,
      "MI": 9261,
      "atar": 9262,
      "Ġapilevel": 9263,
      "ONG": 9264,
      "ican": 9265,
      "Ġartist": 9266,
      "ĠCommittee": 9267,
      "Ġends": 9268,
      "exit": 9269,
      "Ġinterrupt": 9270,
      "ĠRemove": 9271,
      "Ġtechnique": 9272,
      "Ġfra": 9273,
      "Ġspiritual": 9274,
      "Ġaudio": 9275,
      "redu": 9276,
      "imental": 9277,
      "VE": 9278,
      "quare": 9279,
      "iana": 9280,
      "Ġattend": 9281,
      "Ġlargely": 9282,
      "Errorf": 9283,
      "Ġwaters": 9284,
      "sample": 9285,
      "ĠWood": 9286,
      "Ġrough": 9287,
      "Ġdocuments": 9288,
      "Ġalert": 9289,
      "aked": 9290,
      "loop": 9291,
      "accountid": 9292,
      "ows": 9293,
      "Report": 9294,
      "Ġreset": 9295,
      "isis": 9296,
      "UTH": 9297,
      "ĠTre": 9298,
      "feed": 9299,
      "ĠSign": 9300,
      "tooltip": 9301,
      "Ġtor": 9302,
      "ĠTer": 9303,
      "2012": 9304,
      "optional": 9305,
      "Pol": 9306,
      "åĮ": 9307,
      "ented": 9308,
      "portion": 9309,
      "']);": 9310,
      "Join": 9311,
      "lastupdate": 9312,
      "Failure": 9313,
      "ĠGETDATE": 9314,
      "ĠSE": 9315,
      "Ġdebut": 9316,
      "activeid": 9317,
      "Ġalbums": 9318,
      "Under": 9319,
      "Stop": 9320,
      "lastupdateaccountid": 9321,
      "Language": 9322,
      "provinceid": 9323,
      "Ġnine": 9324,
      "cribed": 9325,
      "Ġattacks": 9326,
      "æĶ": 9327,
      "Should": 9328,
      "Pers": 9329,
      "ï»¿": 9330,
      "Ġnarrow": 9331,
      "Ġocean": 9332,
      "acebook": 9333,
      "Ġdiabetes": 9334,
      "ĠCOPY": 9335,
      "Ġunable": 9336,
      "Flag": 9337,
      "ĠWomen": 9338,
      "Ġjobs": 9339,
      "Ġtx": 9340,
      "Ġownership": 9341,
      "circle": 9342,
      "Ġcoal": 9343,
      "Ġcoach": 9344,
      "Ġmurder": 9345,
      "Ġmedicine": 9346,
      "Copyright": 9347,
      "Ġvehicle": 9348,
      "ĠMP": 9349,
      "istant": 9350,
      "However": 9351,
      "Ġcorresponding": 9352,
      "two": 9353,
      "Ġil": 9354,
      "umni": 9355,
      "Pair": 9356,
      "uable": 9357,
      "Ġdesire": 9358,
      "ione": 9359,
      "Ġstars": 9360,
      "strip": 9361,
      "Ġnarr": 9362,
      "who": 9363,
      "Ġ1991": 9364,
      "Nd": 9365,
      "ĠNorthern": 9366,
      "ĠIF": 9367,
      "___": 9368,
      "Dat": 9369,
      "ounce": 9370,
      "Ġplays": 9371,
      "ArgumentException": 9372,
      "Sort": 9373,
      "groups": 9374,
      "ĠMartin": 9375,
      "Let": 9376,
      "aret": 9377,
      "Ġcruc": 9378,
      "Ġtechnologies": 9379,
      "Ġduration": 9380,
      "NUM": 9381,
      "ĠSte": 9382,
      "agger": 9383,
      "ĠAuthor": 9384,
      "ova": 9385,
      "vec": 9386,
      "ĠSwed": 9387,
      "supported": 9388,
      "submit": 9389,
      "Ġrevolution": 9390,
      "Ġplain": 9391,
      "ĠSecret": 9392,
      "ester": 9393,
      "Ġfro": 9394,
      "Ġjustice": 9395,
      "swarm": 9396,
      "Ġfrequency": 9397,
      "Ġda": 9398,
      "Ġdecisions": 9399,
      "atile": 9400,
      "ĠBY": 9401,
      "strings": 9402,
      "ologists": 9403,
      "Ġbroadcast": 9404,
      "Ġengineering": 9405,
      "sylvania": 9406,
      "Ġreceiving": 9407,
      "django": 9408,
      "Ġfert": 9409,
      "atern": 9410,
      "Ġtells": 9411,
      "Ġstrategies": 9412,
      "Ġsurrounding": 9413,
      "Ġsubjects": 9414,
      "wall": 9415,
      "Ġleads": 9416,
      ">)": 9417,
      "ILE": 9418,
      "Since": 9419,
      "Ġpin": 9420,
      "isted": 9421,
      "ĠPan": 9422,
      "upload": 9423,
      "Ġparties": 9424,
      "Ġcreates": 9425,
      "Ġinstrument": 9426,
      "ĠTri": 9427,
      "ĠSpecial": 9428,
      "LOW": 9429,
      "cheduler": 9430,
      "may": 9431,
      "Ġtail": 9432,
      "inator": 9433,
      "Driver": 9434,
      "eli": 9435,
      "èĢ": 9436,
      "oral": 9437,
      "Ali": 9438,
      "Ġsending": 9439,
      "ĠWrite": 9440,
      "Ġrelation": 9441,
      "Ġstret": 9442,
      "rule": 9443,
      "clone": 9444,
      "getElementById": 9445,
      "ĠSIZE": 9446,
      "foot": 9447,
      "Ġadopted": 9448,
      "ARN": 9449,
      "ĠBoard": 9450,
      "åı¯": 9451,
      "Ġrenew": 9452,
      "Ġinterval": 9453,
      "FT": 9454,
      "unct": 9455,
      "Ġcenturies": 9456,
      "URCE": 9457,
      "ĠOhio": 9458,
      "800": 9459,
      "ĠIns": 9460,
      "La": 9461,
      "Ġlie": 9462,
[...]
